// Auto-generated — aggression_classifier_final.ipynb
// Model       : TinyResidualNet (TinyResidualNet)
// Params      : 8,906  |  Size: 27.6 KB
// test mF1    : 0.7050
// arduino mF1 : 0.4722
//
// Feature pipeline (matches AggressionClassifier.ino)
//   SAMPLE_RATE=16000  N_FFT=2048  HOP_LENGTH=512
//   N_MELS=64  fmin=0.0  fmax=8000.0  htk=True
//
// Deployment
//   TFLITE_ARENA_SIZE  = 28672  (28 KB)
//   DECISION_THRESHOLD = 0.49f
//   VOTE_WINDOW        = 2

#ifndef MODEL_DATA_H
#define MODEL_DATA_H

const unsigned char g_model_data[] = {
  0x1c, 0x00, 0x00, 0x00, 0x54, 0x46, 0x4c, 0x33, 0x14, 0x00, 0x20, 0x00,
  0x1c, 0x00, 0x18, 0x00, 0x14, 0x00, 0x10, 0x00, 0x0c, 0x00, 0x00, 0x00,
  0x08, 0x00, 0x04, 0x00, 0x14, 0x00, 0x00, 0x00, 0x1c, 0x00, 0x00, 0x00,
  0x94, 0x00, 0x00, 0x00, 0xec, 0x00, 0x00, 0x00, 0xdc, 0x26, 0x00, 0x00,
  0xec, 0x26, 0x00, 0x00, 0x90, 0x6d, 0x00, 0x00, 0x03, 0x00, 0x00, 0x00,
  0x01, 0x00, 0x00, 0x00, 0x10, 0x00, 0x00, 0x00, 0x00, 0x00, 0x0a, 0x00,
  0x10, 0x00, 0x0c, 0x00, 0x08, 0x00, 0x04, 0x00, 0x0a, 0x00, 0x00, 0x00,
  0x0c, 0x00, 0x00, 0x00, 0x1c, 0x00, 0x00, 0x00, 0x3c, 0x00, 0x00, 0x00,
  0x0f, 0x00, 0x00, 0x00, 0x73, 0x65, 0x72, 0x76, 0x69, 0x6e, 0x67, 0x5f,
  0x64, 0x65, 0x66, 0x61, 0x75, 0x6c, 0x74, 0x00, 0x01, 0x00, 0x00, 0x00,
  0x04, 0x00, 0x00, 0x00, 0x94, 0xff, 0xff, 0xff, 0x26, 0x00, 0x00, 0x00,
  0x04, 0x00, 0x00, 0x00, 0x08, 0x00, 0x00, 0x00, 0x6f, 0x75, 0x74, 0x70,
  0x75, 0x74, 0x5f, 0x30, 0x00, 0x00, 0x00, 0x00, 0x01, 0x00, 0x00, 0x00,
  0x04, 0x00, 0x00, 0x00, 0xee, 0xd8, 0xff, 0xff, 0x04, 0x00, 0x00, 0x00,
  0x09, 0x00, 0x00, 0x00, 0x6d, 0x65, 0x6c, 0x5f, 0x69, 0x6e, 0x70, 0x75,
  0x74, 0x00, 0x00, 0x00, 0x02, 0x00, 0x00, 0x00, 0x34, 0x00, 0x00, 0x00,
  0x04, 0x00, 0x00, 0x00, 0xdc, 0xff, 0xff, 0xff, 0x29, 0x00, 0x00, 0x00,
  0x04, 0x00, 0x00, 0x00, 0x13, 0x00, 0x00, 0x00, 0x43, 0x4f, 0x4e, 0x56,
  0x45, 0x52, 0x53, 0x49, 0x4f, 0x4e, 0x5f, 0x4d, 0x45, 0x54, 0x41, 0x44,
  0x41, 0x54, 0x41, 0x00, 0x08, 0x00, 0x0c, 0x00, 0x08, 0x00, 0x04, 0x00,
  0x08, 0x00, 0x00, 0x00, 0x28, 0x00, 0x00, 0x00, 0x04, 0x00, 0x00, 0x00,
  0x13, 0x00, 0x00, 0x00, 0x6d, 0x69, 0x6e, 0x5f, 0x72, 0x75, 0x6e, 0x74,
  0x69, 0x6d, 0x65, 0x5f, 0x76, 0x65, 0x72, 0x73, 0x69, 0x6f, 0x6e, 0x00,
  0x2a, 0x00, 0x00, 0x00, 0xec, 0x25, 0x00, 0x00, 0xe4, 0x25, 0x00, 0x00,
  0xcc, 0x25, 0x00, 0x00, 0xb4, 0x25, 0x00, 0x00, 0x44, 0x25, 0x00, 0x00,
  0x74, 0x24, 0x00, 0x00, 0x64, 0x1b, 0x00, 0x00, 0x94, 0x1a, 0x00, 0x00,
  0x84, 0x11, 0x00, 0x00, 0xb4, 0x10, 0x00, 0x00, 0xf4, 0x0e, 0x00, 0x00,
  0x24, 0x0e, 0x00, 0x00, 0x94, 0x09, 0x00, 0x00, 0x24, 0x09, 0x00, 0x00,
  0x3c, 0x08, 0x00, 0x00, 0xcc, 0x07, 0x00, 0x00, 0x7c, 0x05, 0x00, 0x00,
  0x0c, 0x05, 0x00, 0x00, 0x24, 0x04, 0x00, 0x00, 0xb4, 0x03, 0x00, 0x00,
  0x84, 0x02, 0x00, 0x00, 0x44, 0x02, 0x00, 0x00, 0xc8, 0x01, 0x00, 0x00,
  0x88, 0x01, 0x00, 0x00, 0x0c, 0x01, 0x00, 0x00, 0x04, 0x01, 0x00, 0x00,
  0xfc, 0x00, 0x00, 0x00, 0xf4, 0x00, 0x00, 0x00, 0xec, 0x00, 0x00, 0x00,
  0xe4, 0x00, 0x00, 0x00, 0xdc, 0x00, 0x00, 0x00, 0xd4, 0x00, 0x00, 0x00,
  0xcc, 0x00, 0x00, 0x00, 0xc4, 0x00, 0x00, 0x00, 0xbc, 0x00, 0x00, 0x00,
  0xb4, 0x00, 0x00, 0x00, 0xac, 0x00, 0x00, 0x00, 0xa4, 0x00, 0x00, 0x00,
  0x9c, 0x00, 0x00, 0x00, 0x94, 0x00, 0x00, 0x00, 0x74, 0x00, 0x00, 0x00,
  0x04, 0x00, 0x00, 0x00, 0x0e, 0xda, 0xff, 0xff, 0x04, 0x00, 0x00, 0x00,
  0x60, 0x00, 0x00, 0x00, 0x0c, 0x00, 0x00, 0x00, 0x08, 0x00, 0x0e, 0x00,
  0x08, 0x00, 0x04, 0x00, 0x08, 0x00, 0x00, 0x00, 0x10, 0x00, 0x00, 0x00,
  0x28, 0x00, 0x00, 0x00, 0x00, 0x00, 0x06, 0x00, 0x08, 0x00, 0x04, 0x00,
  0x06, 0x00, 0x00, 0x00, 0x04, 0x00, 0x00, 0x00, 0x01, 0x00, 0x00, 0x00,
  0xeb, 0x03, 0x00, 0x00, 0x0c, 0x00, 0x18, 0x00, 0x14, 0x00, 0x10, 0x00,
  0x0c, 0x00, 0x04, 0x00, 0x0c, 0x00, 0x00, 0x00, 0x13, 0x57, 0x7f, 0xdd,
  0xb2, 0x23, 0x4b, 0xa2, 0x02, 0x00, 0x00, 0x00, 0x02, 0x00, 0x00, 0x00,
  0x04, 0x00, 0x00, 0x00, 0x06, 0x00, 0x00, 0x00, 0x32, 0x2e, 0x32, 0x31,
  0x2e, 0x30, 0x00, 0x00, 0x7a, 0xda, 0xff, 0xff, 0x04, 0x00, 0x00, 0x00,
  0x10, 0x00, 0x00, 0x00, 0x31, 0x2e, 0x31, 0x34, 0x2e, 0x30, 0x00, 0x00,
  0x00, 0x00, 0x00, 0x00, 0x00, 0x00, 0x00, 0x00, 0x8c, 0x95, 0xff, 0xff,
  0x90, 0x95, 0xff, 0xff, 0x94, 0x95, 0xff, 0xff, 0x98, 0x95, 0xff, 0xff,
  0x9c, 0x95, 0xff, 0xff, 0xa0, 0x95, 0xff, 0xff, 0xa4, 0x95, 0xff, 0xff,
  0xa8, 0x95, 0xff, 0xff, 0xac, 0x95, 0xff, 0xff, 0xb0, 0x95, 0xff, 0xff,
  0xb4, 0x95, 0xff, 0xff, 0xb8, 0x95, 0xff, 0xff, 0xbc, 0x95, 0xff, 0xff,
  0xc0, 0x95, 0xff, 0xff, 0xc4, 0x95, 0xff, 0xff, 0xd2, 0xda, 0xff, 0xff,
  0x04, 0x00, 0x00, 0x00, 0x6c, 0x00, 0x00, 0x00, 0x92, 0x9b, 0x1f, 0xf2,
  0x10, 0x55, 0xda, 0x69, 0x81, 0x85, 0x17, 0x0e, 0x81, 0x42, 0x63, 0x39,
  0xc2, 0x41, 0x5e, 0x57, 0x55, 0x6b, 0x7f, 0xce, 0x34, 0xdb, 0xd1, 0x34,
  0xc3, 0x2a, 0x67, 0xdc, 0x75, 0xb7, 0x7f, 0x50, 0x87, 0x5c, 0xad, 0x7c,
  0x09, 0xa7, 0x66, 0x81, 0x91, 0x48, 0xaa, 0x7f, 0x97, 0xd7, 0xd6, 0x5b,
  0x98, 0x64, 0xf6, 0x27, 0xcd, 0xba, 0x7f, 0xfd, 0x69, 0x8a, 0x81, 0x2c,
  0x23, 0x04, 0x7f, 0xa5, 0xf1, 0xb3, 0x6b, 0xd6, 0x5f, 0xa6, 0x81, 0xc4,
  0x34, 0xc4, 0xc6, 0xd3, 0x08, 0x29, 0xd9, 0x3c, 0x44, 0xc5, 0x81, 0xe1,
  0xab, 0xf7, 0x58, 0x74, 0x95, 0x5f, 0xb8, 0xcc, 0xfe, 0x55, 0x7f, 0xa5,
  0xb3, 0x02, 0x5d, 0xbb, 0x64, 0xea, 0x67, 0x7f, 0x4a, 0xdb, 0xff, 0xff,
  0x04, 0x00, 0x00, 0x00, 0x30, 0x00, 0x00, 0x00, 0x6f, 0x00, 0x00, 0x00,
  0x1f, 0x00, 0x00, 0x00, 0xc4, 0xff, 0xff, 0xff, 0x9b, 0x00, 0x00, 0x00,
  0xff, 0xff, 0xff, 0xff, 0xe6, 0xfe, 0xff, 0xff, 0xdb, 0x00, 0x00, 0x00,
  0xbb, 0xff, 0xff, 0xff, 0x95, 0x01, 0x00, 0x00, 0x48, 0x00, 0x00, 0x00,
  0xb6, 0x00, 0x00, 0x00, 0x1f, 0x00, 0x00, 0x00, 0x86, 0xdb, 0xff, 0xff,
  0x04, 0x00, 0x00, 0x00, 0x6c, 0x00, 0x00, 0x00, 0x7f, 0xfe, 0x1e, 0x0b,
  0x1a, 0xf0, 0x3a, 0xfa, 0xe2, 0x77, 0x60, 0x0f, 0x30, 0x37, 0x0f, 0x81,
  0x4c, 0xd1, 0xe0, 0xb1, 0xb8, 0xf9, 0x2b, 0x3f, 0x4d, 0xb4, 0x9a, 0x4a,
  0x8e, 0xc5, 0x7f, 0x32, 0xd6, 0x3f, 0x91, 0xc5, 0x22, 0x60, 0x7c, 0xbb,
  0x1b, 0xde, 0x3a, 0xab, 0x8a, 0xef, 0x21, 0x8a, 0x71, 0x5d, 0x81, 0x9b,
  0xde, 0x1a, 0x3d, 0xad, 0x81, 0x7f, 0x43, 0xc4, 0xc4, 0x29, 0xf2, 0x5a,
  0x83, 0x7f, 0xc2, 0x01, 0x05, 0x28, 0x7f, 0x81, 0xd9, 0x0a, 0x05, 0x6c,
  0xab, 0x5d, 0x21, 0x81, 0x14, 0x2f, 0x2d, 0x79, 0x36, 0xe1, 0x2d, 0x7e,
  0x81, 0x7a, 0x9e, 0xf3, 0xca, 0x20, 0x36, 0xe3, 0xed, 0x81, 0x28, 0x57,
  0xef, 0xee, 0xbe, 0x2a, 0x4e, 0xa4, 0x44, 0x9c, 0xfe, 0xdb, 0xff, 0xff,
  0x04, 0x00, 0x00, 0x00, 0x30, 0x00, 0x00, 0x00, 0x56, 0xf0, 0xff, 0xff,
  0x0a, 0xfb, 0xff, 0xff, 0x27, 0xff, 0xff, 0xff, 0xfd, 0xf9, 0xff, 0xff,
  0x0a, 0x0e, 0x00, 0x00, 0xcb, 0xfa, 0xff, 0xff, 0xb7, 0xfb, 0xff, 0xff,
  0xd9, 0x0b, 0x00, 0x00, 0x82, 0x11, 0x00, 0x00, 0xbd, 0xf1, 0xff, 0xff,
  0x19, 0xed, 0xff, 0xff, 0x85, 0x0a, 0x00, 0x00, 0x3a, 0xdc, 0xff, 0xff,
  0x04, 0x00, 0x00, 0x00, 0x20, 0x01, 0x00, 0x00, 0x8c, 0x51, 0x4a, 0x7f,
  0xa9, 0x23, 0xb1, 0x1d, 0x16, 0x4e, 0x0c, 0xcd, 0xbe, 0xd5, 0xad, 0xc0,
  0xe8, 0x10, 0x10, 0x12, 0x7f, 0xc9, 0xc0, 0xbb, 0xfc, 0xa5, 0xd4, 0x67,
  0x99, 0xc2, 0x9f, 0x08, 0x81, 0x6d, 0x03, 0x4a, 0x6a, 0x42, 0x49, 0x8d,
  0xec, 0x8e, 0x7f, 0xeb, 0x5d, 0xf1, 0x6b, 0x4f, 0x52, 0x3e, 0xb0, 0xb3,
  0xf7, 0x81, 0xf2, 0x4f, 0x8a, 0xab, 0x43, 0xe3, 0x64, 0x38, 0xf4, 0x10,
  0xef, 0xc7, 0x6b, 0x09, 0xa3, 0x74, 0x81, 0x74, 0xdb, 0xa9, 0x85, 0xd4,
  0x8d, 0x36, 0x4a, 0xb8, 0x81, 0x28, 0xe7, 0x33, 0x0a, 0x82, 0x63, 0x81,
  0xea, 0xe6, 0xa6, 0xde, 0xe6, 0x1c, 0x54, 0x76, 0x45, 0xdb, 0x23, 0xf5,
  0x19, 0x7f, 0x3a, 0x71, 0x4b, 0xe8, 0xa8, 0x59, 0xe9, 0x7f, 0xd6, 0x11,
  0x40, 0x45, 0x47, 0xfe, 0xa8, 0xda, 0xdd, 0x0a, 0x2c, 0xe1, 0x4a, 0x5d,
  0xd9, 0xdb, 0x81, 0x00, 0xd2, 0x3a, 0xb8, 0x11, 0x3e, 0x6d, 0x2e, 0x46,
  0x81, 0xf7, 0xb9, 0x3c, 0xde, 0x36, 0xbb, 0x2c, 0xad, 0x1c, 0x37, 0x7f,
  0x28, 0x46, 0xe3, 0x04, 0x8c, 0x03, 0x41, 0xe0, 0x7f, 0xec, 0xaf, 0xa8,
  0x23, 0x76, 0xd2, 0xe7, 0xb0, 0x34, 0x75, 0x62, 0x51, 0xe5, 0xeb, 0xb1,
  0xfc, 0x01, 0x86, 0xb4, 0x90, 0x59, 0x81, 0xef, 0xe7, 0x2c, 0x5d, 0x81,
  0x05, 0xb9, 0x54, 0x15, 0x65, 0xf7, 0x0b, 0xeb, 0x66, 0x64, 0x42, 0x6b,
  0x12, 0x4d, 0xd6, 0x10, 0x82, 0xe5, 0x81, 0x84, 0xca, 0x6b, 0x21, 0x17,
  0xcf, 0x35, 0xb9, 0x04, 0x78, 0xba, 0xc2, 0x81, 0x1f, 0xb1, 0xc2, 0xaa,
  0x58, 0xfd, 0xe8, 0xa3, 0x68, 0x08, 0x7f, 0x47, 0xf6, 0xa3, 0xf7, 0xe6,
  0xac, 0x02, 0xf4, 0x7a, 0x6f, 0x8c, 0x81, 0x32, 0xa1, 0x81, 0xb8, 0xc7,
  0xcc, 0xb4, 0xf1, 0x0b, 0x08, 0x61, 0x32, 0x9d, 0x01, 0x12, 0xbb, 0xc6,
  0x81, 0x59, 0x41, 0xaf, 0x24, 0xae, 0xaa, 0x40, 0x7f, 0x4b, 0x6b, 0x1a,
  0xcf, 0xda, 0x04, 0xea, 0xd2, 0x37, 0xd2, 0xd1, 0x2d, 0x7b, 0x3c, 0xd8,
  0xd0, 0x65, 0x37, 0xe5, 0x79, 0x7f, 0x3d, 0x09, 0x66, 0xdd, 0xff, 0xff,
  0x04, 0x00, 0x00, 0x00, 0x60, 0x00, 0x00, 0x00, 0xf9, 0xfb, 0xff, 0xff,
  0xf7, 0x0a, 0x00, 0x00, 0x04, 0x09, 0x00, 0x00, 0xe8, 0xf1, 0xff, 0xff,
  0x94, 0x09, 0x00, 0x00, 0x30, 0xfa, 0xff, 0xff, 0x46, 0x13, 0x00, 0x00,
  0x20, 0x02, 0x00, 0x00, 0xf8, 0xef, 0xff, 0xff, 0xb7, 0xfb, 0xff, 0xff,
  0xb0, 0x02, 0x00, 0x00, 0x05, 0xfd, 0xff, 0xff, 0x83, 0xfb, 0xff, 0xff,
  0xd6, 0xf6, 0xff, 0xff, 0x4f, 0x12, 0x00, 0x00, 0x48, 0xfc, 0xff, 0xff,
  0xdb, 0xfe, 0xff, 0xff, 0x1b, 0x04, 0x00, 0x00, 0xe5, 0xf9, 0xff, 0xff,
  0x7b, 0x07, 0x00, 0x00, 0xfe, 0x0e, 0x00, 0x00, 0x12, 0x0c, 0x00, 0x00,
  0xb7, 0xfb, 0xff, 0xff, 0x60, 0xe8, 0xff, 0xff, 0xd2, 0xdd, 0xff, 0xff,
  0x04, 0x00, 0x00, 0x00, 0xd8, 0x00, 0x00, 0x00, 0xd1, 0x9d, 0x81, 0x04,
  0x59, 0x7f, 0x83, 0x23, 0xae, 0x33, 0x7d, 0xe7, 0x04, 0x08, 0xc0, 0x81,
  0x0d, 0x9d, 0x18, 0x4e, 0xad, 0x3f, 0x81, 0x60, 0xa6, 0xac, 0xcb, 0xd8,
  0x6e, 0x3f, 0xe9, 0xbf, 0x2e, 0x97, 0xe8, 0x84, 0x7f, 0x1c, 0xb8, 0xab,
  0x65, 0x0b, 0xeb, 0xcc, 0x30, 0x27, 0xfe, 0xf4, 0x37, 0xfd, 0xb4, 0x81,
  0x31, 0x34, 0x04, 0x81, 0x7f, 0x5c, 0x81, 0x66, 0x2b, 0xcf, 0x37, 0x71,
  0x73, 0x22, 0x7f, 0xd4, 0xda, 0x7f, 0x0a, 0x14, 0x0d, 0xd3, 0xe2, 0x25,
  0xc0, 0xa0, 0x74, 0xd2, 0x50, 0xc7, 0xa2, 0x4a, 0x4e, 0xcf, 0x95, 0xd4,
  0x05, 0xf8, 0x51, 0x81, 0xf4, 0x26, 0x3f, 0x22, 0xa8, 0x03, 0x52, 0x9e,
  0x75, 0x07, 0x35, 0xf6, 0x27, 0x1a, 0x8e, 0x7f, 0x01, 0xd8, 0x8c, 0xe8,
  0x7f, 0xe2, 0x99, 0x49, 0x25, 0xb2, 0x2f, 0xc3, 0xdf, 0x36, 0x3b, 0x98,
  0x4b, 0xf4, 0xa6, 0x02, 0xb9, 0x81, 0x02, 0xe6, 0xcd, 0x50, 0xd7, 0xf1,
  0x02, 0x01, 0x0c, 0x47, 0xec, 0xce, 0x26, 0x4f, 0x17, 0x81, 0x5e, 0x2d,
  0xda, 0x28, 0x81, 0xb8, 0x1c, 0x3e, 0x83, 0x60, 0x17, 0x7f, 0x7f, 0x84,
  0xbd, 0x30, 0x81, 0xf1, 0xfd, 0xd6, 0x1c, 0x7a, 0x7f, 0x5d, 0xb3, 0x6c,
  0x28, 0xff, 0xb5, 0x35, 0x4e, 0x71, 0xc1, 0xab, 0xf3, 0x44, 0x2e, 0xd8,
  0x25, 0x9f, 0x7d, 0xd0, 0xd3, 0xc2, 0x4d, 0x7f, 0x50, 0x21, 0x4e, 0x8f,
  0x7f, 0x3a, 0x14, 0xaa, 0x0c, 0x20, 0x13, 0x74, 0x03, 0x5a, 0xe3, 0x6a,
  0xd2, 0x81, 0x20, 0x60, 0x81, 0xa9, 0x9e, 0xb0, 0xb6, 0xde, 0xff, 0xff,
  0x04, 0x00, 0x00, 0x00, 0x60, 0x00, 0x00, 0x00, 0x23, 0x01, 0x00, 0x00,
  0x2c, 0x05, 0x00, 0x00, 0x7f, 0x02, 0x00, 0x00, 0x4b, 0x09, 0x00, 0x00,
  0xbd, 0xee, 0xff, 0xff, 0x6c, 0xf9, 0xff, 0xff, 0xe3, 0x08, 0x00, 0x00,
  0x83, 0x09, 0x00, 0x00, 0x09, 0xf8, 0xff, 0xff, 0xe3, 0xfd, 0xff, 0xff,
  0x27, 0x11, 0x00, 0x00, 0x44, 0xf7, 0xff, 0xff, 0x97, 0xf8, 0xff, 0xff,
  0x28, 0xf8, 0xff, 0xff, 0xb5, 0x08, 0x00, 0x00, 0xca, 0x08, 0x00, 0x00,
  0xbe, 0xf8, 0xff, 0xff, 0xe4, 0x09, 0x00, 0x00, 0x34, 0xf9, 0xff, 0xff,
  0xf8, 0xfe, 0xff, 0xff, 0xe1, 0x06, 0x00, 0x00, 0x64, 0x04, 0x00, 0x00,
  0xe3, 0xfd, 0xff, 0xff, 0x1a, 0xf7, 0xff, 0xff, 0x22, 0xdf, 0xff, 0xff,
  0x04, 0x00, 0x00, 0x00, 0x40, 0x02, 0x00, 0x00, 0xf9, 0xb3, 0x4f, 0xf1,
  0x9b, 0x2d, 0x51, 0x43, 0x81, 0x9f, 0x4e, 0x0f, 0xc5, 0x56, 0x4a, 0xe2,
  0x28, 0x20, 0x25, 0xc3, 0x35, 0xfa, 0xea, 0xee, 0x54, 0xec, 0x9d, 0xc4,
  0x7f, 0x21, 0x0a, 0xc1, 0xd4, 0x38, 0x81, 0x0f, 0xf3, 0xb8, 0x81, 0xa3,
  0x2b, 0xe5, 0x82, 0xee, 0x02, 0x62, 0x42, 0x1e, 0x29, 0x36, 0x9e, 0xc5,
  0x7a, 0x4f, 0x78, 0x58, 0xc5, 0x6c, 0x2e, 0xc7, 0x70, 0x47, 0x20, 0x66,
  0xd0, 0x4a, 0x11, 0xd2, 0x34, 0x06, 0xeb, 0x81, 0xc0, 0x7f, 0xcb, 0xbd,
  0x46, 0xa8, 0x70, 0x13, 0xef, 0xe8, 0x9e, 0xed, 0x25, 0x41, 0x10, 0x74,
  0xf8, 0x3c, 0xe8, 0xe6, 0x64, 0x30, 0x1d, 0x75, 0x75, 0x1d, 0x8a, 0x5b,
  0xa7, 0x35, 0x34, 0x99, 0x7f, 0xa4, 0x65, 0x13, 0xa9, 0xe9, 0x28, 0x43,
  0x45, 0x92, 0x68, 0x75, 0xf6, 0x69, 0x0c, 0xa7, 0x3e, 0xfd, 0x0a, 0x05,
  0x08, 0xd5, 0x43, 0x65, 0x08, 0x48, 0xbb, 0xa6, 0x4d, 0x59, 0x2a, 0xd3,
  0x95, 0x7b, 0x7f, 0xad, 0xc7, 0x70, 0xb9, 0x35, 0xe9, 0x17, 0xb9, 0xda,
  0x4e, 0x93, 0xe6, 0xe5, 0xa9, 0x81, 0xea, 0x43, 0x70, 0x25, 0xb7, 0x6e,
  0x79, 0xe1, 0x63, 0xe2, 0xed, 0x08, 0x28, 0xc3, 0x7f, 0xd2, 0x2e, 0xc0,
  0xe4, 0x33, 0x61, 0xcc, 0xdb, 0xee, 0x7b, 0x8d, 0xf7, 0x73, 0xa0, 0xca,
  0x70, 0x12, 0xc2, 0x3c, 0x18, 0x5e, 0x0e, 0x1b, 0xb6, 0xc3, 0xd0, 0xf1,
  0x1e, 0x91, 0xba, 0x91, 0x17, 0xc7, 0x81, 0xe2, 0x77, 0x58, 0x79, 0xbe,
  0x0b, 0x89, 0xca, 0x84, 0xb9, 0x69, 0xba, 0xce, 0x7f, 0x15, 0x56, 0xf1,
  0xfe, 0x07, 0x88, 0x21, 0x2d, 0x5b, 0xc5, 0xfd, 0xbb, 0x72, 0xda, 0xfe,
  0x9d, 0xaa, 0x93, 0xa6, 0x57, 0xdb, 0xdd, 0x6d, 0x17, 0xa8, 0x36, 0x9b,
  0x44, 0x81, 0x52, 0x1f, 0xb4, 0x2e, 0x96, 0xaa, 0xd1, 0x8a, 0x69, 0xfc,
  0x56, 0xe2, 0xf1, 0x99, 0xf6, 0x1c, 0x2b, 0xfc, 0x7f, 0xa2, 0x4d, 0xd5,
  0xf7, 0x4c, 0x34, 0x5b, 0x58, 0xf1, 0xb5, 0x5a, 0x29, 0xf6, 0xee, 0x1d,
  0xdc, 0xfc, 0x2c, 0x35, 0x59, 0xa8, 0x9a, 0x8a, 0x7c, 0xd0, 0x09, 0x24,
  0xa0, 0x1e, 0x7f, 0x77, 0xde, 0xf1, 0xff, 0xec, 0xc3, 0xb8, 0xbb, 0xff,
  0x97, 0x48, 0x63, 0x5e, 0xfc, 0x62, 0x6d, 0x44, 0x36, 0xd5, 0x95, 0x69,
  0xab, 0xce, 0xb8, 0xdf, 0x22, 0x24, 0x4b, 0x7f, 0xe1, 0x77, 0x8d, 0x0d,
  0x8b, 0x2e, 0xc5, 0x1b, 0xc6, 0x00, 0x19, 0x2a, 0x63, 0x9b, 0x2e, 0xfb,
  0x42, 0x7f, 0x0d, 0xb4, 0xaa, 0xfd, 0xc1, 0x0f, 0x13, 0x27, 0x3f, 0xd1,
  0x2f, 0x40, 0x35, 0x16, 0x3e, 0xb9, 0x69, 0xcb, 0x3d, 0x18, 0xd4, 0xa2,
  0x25, 0x28, 0x68, 0x86, 0xee, 0xe6, 0x7f, 0x84, 0x9f, 0x82, 0x0a, 0x83,
  0xe2, 0xdf, 0x2f, 0xf3, 0xfa, 0x48, 0xfa, 0x2e, 0x46, 0x49, 0xa9, 0x3b,
  0xc0, 0xa4, 0x6b, 0x81, 0xc7, 0xd2, 0xc3, 0xdc, 0xe5, 0x04, 0xba, 0x49,
  0x88, 0x4c, 0x6d, 0x19, 0xd1, 0x3f, 0xba, 0x35, 0xec, 0xfa, 0x2e, 0xd3,
  0x87, 0xef, 0x48, 0xc5, 0xef, 0x3f, 0xde, 0xea, 0x4d, 0x17, 0x47, 0x50,
  0xf9, 0x81, 0xf6, 0xde, 0x8f, 0x54, 0x31, 0x57, 0xf5, 0x12, 0x23, 0xe4,
  0x4c, 0xdb, 0x62, 0x5a, 0x2a, 0x13, 0x7f, 0xa1, 0x67, 0x56, 0xd8, 0xb5,
  0x9f, 0xe3, 0x5f, 0xcf, 0x3f, 0x1f, 0xaf, 0xaa, 0x1a, 0x55, 0xba, 0x0a,
  0xbe, 0xac, 0xe4, 0x0f, 0x54, 0x01, 0x38, 0xb7, 0x1b, 0x50, 0x97, 0xcc,
  0x81, 0x3b, 0x43, 0xd1, 0x5d, 0xb5, 0x58, 0xff, 0xe6, 0xac, 0x81, 0x70,
  0x70, 0x72, 0x1e, 0xf4, 0x6c, 0x4c, 0x45, 0x18, 0x1a, 0xd9, 0xe0, 0x16,
  0x11, 0x8b, 0x07, 0xdd, 0x6d, 0x68, 0xa3, 0x79, 0xa2, 0xb7, 0xf0, 0x50,
  0x54, 0xe8, 0xdc, 0x4a, 0x52, 0x33, 0xec, 0x18, 0xac, 0x17, 0xcf, 0x7f,
  0x50, 0xa6, 0x3a, 0x90, 0x27, 0x55, 0x91, 0xe3, 0xea, 0xc2, 0xa3, 0x7e,
  0x44, 0x32, 0x19, 0x32, 0x4c, 0xbb, 0x32, 0x7a, 0x67, 0x82, 0x40, 0x70,
  0x50, 0x58, 0xbf, 0x81, 0xa1, 0x62, 0xd6, 0xbc, 0x8c, 0x1d, 0x84, 0xf1,
  0xc2, 0x5e, 0x77, 0xec, 0x6e, 0x7f, 0xd5, 0x39, 0x05, 0xb2, 0x8c, 0x74,
  0x89, 0x5c, 0x19, 0xa0, 0x3c, 0x77, 0xf6, 0xb8, 0x6e, 0xe1, 0xff, 0xff,
  0x04, 0x00, 0x00, 0x00, 0x60, 0x00, 0x00, 0x00, 0x18, 0xff, 0xff, 0xff,
  0x9f, 0x0b, 0x00, 0x00, 0xd1, 0xea, 0xff, 0xff, 0x32, 0xf2, 0xff, 0xff,
  0xc5, 0xf4, 0xff, 0xff, 0x6b, 0xf3, 0xff, 0xff, 0xc3, 0xff, 0xff, 0xff,
  0xc1, 0xf5, 0xff, 0xff, 0xdd, 0x15, 0x00, 0x00, 0x75, 0x04, 0x00, 0x00,
  0x5b, 0x0b, 0x00, 0x00, 0xf7, 0xf8, 0xff, 0xff, 0x5a, 0xf3, 0xff, 0xff,
  0xe1, 0x01, 0x00, 0x00, 0x38, 0xf9, 0xff, 0xff, 0xb3, 0x07, 0x00, 0x00,
  0x4b, 0x04, 0x00, 0x00, 0x37, 0x00, 0x00, 0x00, 0xc8, 0xf5, 0xff, 0xff,
  0x23, 0x01, 0x00, 0x00, 0x10, 0xf0, 0xff, 0xff, 0x0a, 0x01, 0x00, 0x00,
  0xd8, 0xf3, 0xff, 0xff, 0xe6, 0xfb, 0xff, 0xff, 0xda, 0xe1, 0xff, 0xff,
  0x04, 0x00, 0x00, 0x00, 0xd8, 0x00, 0x00, 0x00, 0xc0, 0xbb, 0xf8, 0x4c,
  0x42, 0xf7, 0xa8, 0xca, 0xc8, 0xa3, 0x90, 0x7f, 0x4d, 0xb5, 0x59, 0xee,
  0x10, 0x69, 0x00, 0xae, 0xfb, 0x49, 0x2e, 0x7f, 0x2c, 0xc2, 0x81, 0x6d,
  0xfd, 0x94, 0x61, 0x33, 0xe6, 0x8f, 0x88, 0x44, 0xf0, 0xe3, 0x23, 0xdf,
  0x2e, 0x2d, 0x28, 0xe3, 0xdf, 0x0a, 0x30, 0x00, 0x3f, 0xb1, 0x17, 0xdf,
  0xf4, 0x17, 0xcf, 0x54, 0xaa, 0x0f, 0x20, 0x0b, 0x81, 0x0f, 0xde, 0x29,
  0xb7, 0x47, 0x19, 0x3d, 0x81, 0x31, 0xbc, 0x07, 0xdf, 0x35, 0xce, 0xea,
  0xd9, 0x81, 0x7f, 0x68, 0x95, 0x4e, 0x81, 0xd2, 0x2c, 0xb6, 0x7f, 0x3c,
  0xf3, 0xcb, 0x51, 0x60, 0xcf, 0x43, 0x20, 0x46, 0x18, 0xe6, 0xd7, 0x3e,
  0x81, 0xd0, 0xf6, 0x7f, 0x18, 0x81, 0x8d, 0x5f, 0xc5, 0x81, 0xee, 0x7f,
  0x5a, 0x29, 0xc4, 0x40, 0x4a, 0x21, 0x53, 0xc2, 0xdb, 0x1c, 0x6c, 0x81,
  0xbf, 0x11, 0x4f, 0xfa, 0x05, 0xcc, 0x1f, 0x14, 0xc9, 0xc9, 0x1e, 0xdb,
  0xe5, 0xf7, 0xe4, 0x28, 0x4c, 0x00, 0x53, 0xc2, 0x7f, 0xbb, 0xf3, 0x26,
  0x12, 0x53, 0x05, 0x0b, 0x7c, 0xf4, 0x2c, 0xb5, 0x16, 0x56, 0xec, 0xc6,
  0x7f, 0x81, 0x45, 0xc7, 0x69, 0x61, 0x81, 0x90, 0xa0, 0x52, 0x93, 0x8a,
  0xad, 0x05, 0x61, 0x3e, 0x81, 0xad, 0x14, 0xb4, 0xb9, 0xc8, 0x19, 0xb9,
  0x13, 0xb6, 0x7f, 0xcd, 0x02, 0x7f, 0x33, 0xb5, 0x02, 0x7f, 0xc7, 0x57,
  0xb2, 0x6b, 0x24, 0xe5, 0xc6, 0x56, 0xd1, 0x14, 0xac, 0xee, 0x1b, 0xf8,
  0x44, 0x22, 0xf9, 0x81, 0x9c, 0xd3, 0x1e, 0x6d, 0xbe, 0xe2, 0xff, 0xff,
  0x04, 0x00, 0x00, 0x00, 0x60, 0x00, 0x00, 0x00, 0x27, 0xff, 0xff, 0xff,
  0xaf, 0x01, 0x00, 0x00, 0xbf, 0x0a, 0x00, 0x00, 0x97, 0xf9, 0xff, 0xff,
  0x7e, 0x0a, 0x00, 0x00, 0xd1, 0x02, 0x00, 0x00, 0x50, 0xf6, 0xff, 0xff,
  0xcb, 0xf3, 0xff, 0xff, 0xee, 0x0c, 0x00, 0x00, 0xb5, 0x0e, 0x00, 0x00,
  0xb4, 0x10, 0x00, 0x00, 0xfa, 0xf8, 0xff, 0xff, 0x06, 0x08, 0x00, 0x00,
  0x79, 0x0e, 0x00, 0x00, 0x2d, 0xf4, 0xff, 0xff, 0x31, 0xff, 0xff, 0xff,
  0xa5, 0xf7, 0xff, 0xff, 0xab, 0xfe, 0xff, 0xff, 0xd3, 0xf5, 0xff, 0xff,
  0x75, 0x04, 0x00, 0x00, 0x58, 0x01, 0x00, 0x00, 0x1b, 0xed, 0xff, 0xff,
  0x4d, 0xf6, 0xff, 0xff, 0x33, 0xff, 0xff, 0xff, 0x2a, 0xe3, 0xff, 0xff,
  0x04, 0x00, 0x00, 0x00, 0x80, 0x04, 0x00, 0x00, 0xba, 0xfa, 0x60, 0x41,
  0x11, 0x81, 0x4f, 0xb4, 0x36, 0x55, 0x75, 0xf6, 0xd9, 0x0b, 0x94, 0xf4,
  0x61, 0x89, 0xbf, 0xbb, 0x6e, 0x50, 0x44, 0xe9, 0x9e, 0x4e, 0x98, 0x81,
  0x02, 0x05, 0xe7, 0xdd, 0xae, 0x20, 0x50, 0x59, 0xd6, 0xd8, 0xec, 0x6e,
  0xb4, 0xa2, 0x49, 0xf6, 0xdb, 0x5e, 0xbe, 0x1b, 0x06, 0x07, 0x0c, 0x09,
  0xc4, 0xe9, 0xd0, 0x38, 0x9c, 0x3e, 0x3b, 0xe1, 0x62, 0x64, 0xff, 0x40,
  0x1a, 0x6d, 0x59, 0x7f, 0xc2, 0x08, 0x15, 0xa1, 0xd5, 0x7f, 0xb6, 0xd0,
  0xb1, 0xc3, 0x0b, 0x4e, 0x53, 0x7b, 0xa9, 0xfb, 0x69, 0x9e, 0x2b, 0xcb,
  0x45, 0xd2, 0xa3, 0x9f, 0xce, 0xa3, 0x99, 0x10, 0xd4, 0xd2, 0xa3, 0xbb,
  0x25, 0x02, 0xcf, 0x45, 0xb6, 0xd8, 0x8f, 0x49, 0xda, 0xd8, 0x81, 0x04,
  0x16, 0x2a, 0xf3, 0xd2, 0x48, 0xe1, 0xe1, 0x21, 0x55, 0xe3, 0xe1, 0xba,
  0xd6, 0xe1, 0x36, 0x4c, 0x17, 0xc1, 0xa3, 0x05, 0x56, 0x54, 0x8c, 0x6d,
  0x61, 0xac, 0x7f, 0x02, 0x69, 0xd4, 0xe3, 0x0b, 0xf2, 0x05, 0x1b, 0x53,
  0x34, 0xc6, 0xf4, 0x8e, 0x4c, 0x3d, 0x30, 0x66, 0x3e, 0xf4, 0x7f, 0xcf,
  0xa4, 0x2c, 0x6b, 0x4f, 0x47, 0x3f, 0x2a, 0x57, 0x9f, 0x71, 0xb2, 0xdd,
  0x3e, 0xae, 0xea, 0xef, 0x0c, 0x9a, 0xab, 0x2c, 0x68, 0x65, 0xa7, 0xa7,
  0xc1, 0x6d, 0xb8, 0x95, 0x7f, 0xc0, 0x28, 0x0a, 0xe0, 0xe5, 0x7c, 0xef,
  0x58, 0x23, 0xc9, 0x72, 0xf0, 0xd5, 0x8a, 0x56, 0xe1, 0x3b, 0xc3, 0x2d,
  0x3a, 0x20, 0xb8, 0xc7, 0x66, 0x81, 0x62, 0xb9, 0x4d, 0xaa, 0x2f, 0x90,
  0xeb, 0x17, 0x24, 0x21, 0x3d, 0x81, 0xbf, 0x46, 0x96, 0x1d, 0x24, 0x28,
  0xdb, 0x2e, 0xe1, 0x9f, 0xaf, 0x0c, 0xe1, 0x03, 0xde, 0x7c, 0x52, 0xac,
  0xc5, 0x10, 0xd5, 0x47, 0xe0, 0x2d, 0x14, 0xc8, 0xc5, 0xb3, 0x5b, 0x2d,
  0x64, 0x15, 0xc6, 0xf1, 0x10, 0x43, 0x7f, 0x4a, 0x99, 0x0b, 0x4d, 0x2e,
  0xc4, 0xc6, 0xd0, 0xea, 0x09, 0x81, 0x59, 0x25, 0xf1, 0xad, 0x17, 0xff,
  0x66, 0xeb, 0x72, 0x37, 0xb5, 0xfb, 0xb7, 0xd5, 0xee, 0x9a, 0x09, 0x06,
  0xd8, 0x76, 0xe2, 0xc2, 0xe6, 0x81, 0x77, 0x0b, 0xd1, 0xec, 0x2c, 0x59,
  0x90, 0x71, 0xe3, 0xf7, 0x57, 0xd4, 0xe8, 0xbc, 0xe3, 0x57, 0xb0, 0xec,
  0x93, 0xcc, 0xc0, 0x4c, 0xfa, 0xbf, 0x27, 0xbd, 0xc0, 0x0f, 0x69, 0xc2,
  0xd7, 0x1e, 0xff, 0xe2, 0xbc, 0xa2, 0x14, 0x7f, 0x19, 0x25, 0x68, 0x9c,
  0xc2, 0xe7, 0xfa, 0x5f, 0x0b, 0x41, 0xcf, 0x96, 0xfd, 0x77, 0x62, 0x60,
  0x10, 0x49, 0xef, 0xba, 0x81, 0x5c, 0x38, 0xd6, 0xcf, 0x23, 0xf7, 0xc1,
  0x6f, 0xd3, 0xcd, 0x1b, 0xb9, 0x9e, 0xf6, 0x26, 0x69, 0x23, 0xab, 0x9c,
  0xdb, 0x9d, 0x81, 0x11, 0x58, 0x4a, 0xc6, 0x2b, 0x32, 0x35, 0xdc, 0xb4,
  0x00, 0x81, 0x97, 0xd6, 0xc0, 0xf8, 0xc2, 0xa5, 0x31, 0x6c, 0xac, 0xc8,
  0x31, 0x76, 0x0c, 0x64, 0x0a, 0x21, 0x50, 0x86, 0xbe, 0x9f, 0xed, 0xaf,
  0xe9, 0xc6, 0x78, 0xa5, 0xb9, 0xc7, 0xa6, 0xfa, 0xd0, 0xea, 0xbe, 0x1a,
  0x18, 0x9f, 0x04, 0xc1, 0x7f, 0xd2, 0x8e, 0x6f, 0xfd, 0xd4, 0x35, 0x6d,
  0x79, 0x85, 0xc2, 0x7e, 0xd1, 0x03, 0x02, 0x74, 0xc1, 0x7e, 0x7a, 0x4b,
  0x2b, 0xb1, 0x81, 0x41, 0xd7, 0xe5, 0x28, 0x85, 0xbf, 0xf5, 0xb9, 0x36,
  0xe3, 0x55, 0x9d, 0xae, 0x14, 0x08, 0xfe, 0x39, 0x7f, 0x86, 0x90, 0x58,
  0xf9, 0x1e, 0x0f, 0xaf, 0x2b, 0x78, 0xdc, 0x4c, 0xe3, 0xc5, 0x61, 0x23,
  0x7f, 0x62, 0xfd, 0xf4, 0x01, 0x95, 0xfe, 0xb1, 0x2c, 0xe7, 0xc1, 0x11,
  0x8b, 0xf7, 0xce, 0xaa, 0x95, 0x1c, 0x98, 0x28, 0x16, 0xe6, 0xcd, 0x52,
  0x51, 0xa5, 0xb4, 0x04, 0x7f, 0xd4, 0x0a, 0x69, 0x0d, 0x03, 0xf7, 0xfa,
  0x6f, 0xfc, 0x5f, 0x34, 0x5a, 0x6c, 0x60, 0xa6, 0x1b, 0xfd, 0x17, 0xc1,
  0xbc, 0x42, 0x5d, 0xc3, 0xbb, 0xe3, 0x09, 0x62, 0x7f, 0xab, 0xfe, 0xfc,
  0xda, 0x76, 0x75, 0x4a, 0x40, 0x06, 0x6c, 0x64, 0xe5, 0x0f, 0x1e, 0x0f,
  0x89, 0x26, 0xaa, 0xc0, 0x42, 0x36, 0x4d, 0x42, 0xf8, 0x52, 0x2c, 0x47,
  0x04, 0xe1, 0x57, 0xca, 0xef, 0x81, 0x10, 0x3f, 0xd2, 0xc4, 0xea, 0x64,
  0xa5, 0x31, 0x63, 0xe2, 0x40, 0x7f, 0x67, 0xe3, 0x5b, 0xb1, 0xef, 0xf3,
  0x69, 0x89, 0x90, 0xea, 0xb0, 0xcc, 0xdd, 0xb8, 0x5b, 0xd1, 0xa6, 0x4a,
  0x2e, 0x1d, 0x6a, 0xd6, 0x29, 0x2e, 0xf6, 0xbb, 0x2d, 0x50, 0xfc, 0xce,
  0x69, 0x00, 0x5c, 0xc5, 0x33, 0x81, 0xf1, 0x5b, 0x55, 0x66, 0xd9, 0x47,
  0x17, 0x50, 0xc0, 0xca, 0xc3, 0x67, 0xe4, 0x4f, 0x47, 0x54, 0x46, 0x61,
  0x31, 0x9f, 0xac, 0xe1, 0xa3, 0x81, 0xc0, 0xd8, 0xb9, 0xd8, 0x26, 0x3c,
  0xbf, 0xad, 0xc8, 0xdf, 0x23, 0x19, 0x4f, 0x94, 0x4f, 0x0b, 0x65, 0x62,
  0xac, 0x3b, 0xeb, 0xee, 0x81, 0x52, 0x25, 0xf6, 0xb6, 0x9f, 0x64, 0x1b,
  0x20, 0xf3, 0x34, 0x10, 0x00, 0x54, 0x58, 0x54, 0xca, 0xb4, 0x4a, 0xcb,
  0x41, 0x25, 0x7f, 0xef, 0x6d, 0x58, 0x6b, 0x0c, 0xe6, 0x38, 0xa1, 0xc6,
  0x25, 0xea, 0x2c, 0x59, 0xe5, 0x98, 0x13, 0x00, 0x9d, 0xc2, 0x52, 0xc0,
  0x28, 0x7f, 0x6d, 0x43, 0x44, 0x14, 0xbe, 0xcd, 0xc1, 0xc0, 0xbf, 0x00,
  0x0e, 0xa6, 0x3d, 0x38, 0x14, 0x23, 0x8c, 0x6c, 0xe8, 0xb6, 0x36, 0x1e,
  0xf5, 0xe1, 0x7f, 0x20, 0x2e, 0x00, 0xbe, 0xee, 0x01, 0x2d, 0x23, 0xbc,
  0xc2, 0x0c, 0xe9, 0x88, 0x7f, 0x44, 0xc9, 0x30, 0xe4, 0x99, 0x4a, 0xfe,
  0xd4, 0x13, 0xb2, 0x25, 0x29, 0xa1, 0xee, 0x17, 0x48, 0xbb, 0xec, 0xb3,
  0xa8, 0xc4, 0x1c, 0xd0, 0xe3, 0x90, 0xf1, 0xf1, 0x56, 0xa4, 0x2f, 0xe6,
  0xc2, 0xd0, 0x81, 0xca, 0xc3, 0x36, 0x39, 0xb6, 0x31, 0x95, 0x53, 0x47,
  0xda, 0x2a, 0xc0, 0x9d, 0x81, 0xb9, 0xa5, 0x3f, 0x53, 0x24, 0x24, 0x0c,
  0xa4, 0x2f, 0xcb, 0x06, 0xa0, 0x6e, 0x62, 0xe2, 0x7c, 0x65, 0x5f, 0x5d,
  0x76, 0xb5, 0x5b, 0x3d, 0xb3, 0xa3, 0xba, 0xac, 0xf4, 0xef, 0xe5, 0x08,
  0x06, 0xcf, 0x7f, 0x4e, 0x5c, 0xff, 0x09, 0xf1, 0x4a, 0x2e, 0x22, 0x9f,
  0x58, 0x3d, 0x18, 0xaf, 0x2b, 0x44, 0xcf, 0xf6, 0x11, 0xd9, 0x85, 0x1e,
  0xa1, 0x7b, 0x11, 0x71, 0xe1, 0x7f, 0x0d, 0xb8, 0xf8, 0xda, 0xdf, 0x93,
  0x5b, 0xee, 0xf0, 0x0b, 0x9a, 0xf4, 0x45, 0x43, 0x43, 0x37, 0xb2, 0x42,
  0xd4, 0xed, 0x48, 0xaf, 0xd8, 0xb5, 0x81, 0x48, 0x81, 0xf4, 0xf1, 0x28,
  0x4a, 0x43, 0x5b, 0xfa, 0x75, 0x9e, 0xdc, 0xf2, 0x2e, 0xaa, 0x48, 0x37,
  0x9e, 0x1d, 0x98, 0x5f, 0x19, 0x4f, 0x0e, 0x97, 0xb5, 0x98, 0x29, 0x2a,
  0xea, 0x11, 0xd5, 0x81, 0x70, 0x9b, 0x61, 0x08, 0xeb, 0xb1, 0x44, 0x69,
  0x0f, 0x9a, 0x21, 0x79, 0xb4, 0xf3, 0x3b, 0xae, 0xa5, 0x50, 0xb1, 0x33,
  0xd6, 0xad, 0x19, 0xcf, 0x7f, 0xb7, 0xf9, 0x46, 0x39, 0xe2, 0xf9, 0xd9,
  0xe7, 0xc8, 0xf7, 0xb4, 0xf2, 0x1f, 0xe5, 0xc4, 0x11, 0x81, 0x59, 0xf4,
  0xf2, 0xa0, 0x31, 0xf5, 0x55, 0x24, 0xf6, 0xd7, 0xd8, 0x58, 0x2a, 0x6d,
  0xd4, 0x0d, 0x62, 0xf7, 0x34, 0x93, 0x48, 0x9e, 0x33, 0xc3, 0xf8, 0x03,
  0x1b, 0xcb, 0x78, 0x59, 0xee, 0x61, 0x58, 0xac, 0xc1, 0x90, 0x7f, 0x30,
  0xe1, 0xdb, 0xdf, 0x4d, 0x5b, 0x24, 0x8b, 0x65, 0x68, 0x5d, 0x7f, 0x10,
  0x49, 0x25, 0xfc, 0xcd, 0x9c, 0x49, 0x47, 0x96, 0x3b, 0x35, 0xbc, 0xf1,
  0x5a, 0x46, 0x1b, 0x2d, 0xb1, 0xd1, 0xa8, 0x20, 0x21, 0xad, 0x42, 0x35,
  0x48, 0x39, 0x34, 0x09, 0x54, 0xad, 0x7f, 0xf3, 0x60, 0x29, 0x00, 0x4d,
  0x13, 0x2d, 0x8c, 0xb4, 0xe7, 0xe3, 0xa3, 0x0f, 0x1a, 0x3c, 0x83, 0x76,
  0xc9, 0x7c, 0x6b, 0xcc, 0x81, 0xf9, 0x4f, 0x9f, 0x89, 0x42, 0x5e, 0x1c,
  0x60, 0xbf, 0x6b, 0x1b, 0x38, 0x9e, 0x5e, 0x4c, 0x1b, 0xae, 0x85, 0x3d,
  0xc8, 0x3d, 0x19, 0xcd, 0x46, 0xd1, 0x6f, 0xb3, 0x7f, 0x20, 0xac, 0x76,
  0xce, 0xfb, 0x57, 0xff, 0xb6, 0x28, 0x33, 0x74, 0x59, 0xa1, 0x2e, 0x58,
  0x1a, 0x38, 0xa5, 0x28, 0x13, 0x99, 0x9d, 0x52, 0x09, 0x31, 0x9a, 0x83,
  0x90, 0x91, 0x81, 0x09, 0xe9, 0x0e, 0x52, 0x38, 0x1d, 0x38, 0x86, 0x34,
  0xef, 0xe8, 0xe1, 0x81, 0xb7, 0x07, 0x6f, 0xf3, 0x63, 0x09, 0x0b, 0xcf,
  0x4e, 0xbb, 0x8c, 0xde, 0xd2, 0x64, 0xe7, 0x8e, 0xb6, 0xe7, 0xff, 0xff,
  0x04, 0x00, 0x00, 0x00, 0xc0, 0x00, 0x00, 0x00, 0x80, 0xf7, 0xff, 0xff,
  0xad, 0x05, 0x00, 0x00, 0xd7, 0xed, 0xff, 0xff, 0x1f, 0x0d, 0x00, 0x00,
  0xe2, 0x14, 0x00, 0x00, 0x77, 0xf8, 0xff, 0xff, 0x7c, 0xe2, 0xff, 0xff,
  0x61, 0x0a, 0x00, 0x00, 0xb2, 0x00, 0x00, 0x00, 0x07, 0x0b, 0x00, 0x00,
  0x4d, 0xf1, 0xff, 0xff, 0xf5, 0x03, 0x00, 0x00, 0x00, 0x09, 0x00, 0x00,
  0xf4, 0x0c, 0x00, 0x00, 0xf9, 0xf1, 0xff, 0xff, 0x25, 0x0c, 0x00, 0x00,
  0x74, 0x06, 0x00, 0x00, 0xbc, 0x1b, 0x00, 0x00, 0x21, 0xf6, 0xff, 0xff,
  0x72, 0x01, 0x00, 0x00, 0x91, 0x0d, 0x00, 0x00, 0x0b, 0xe6, 0xff, 0xff,
  0x49, 0xec, 0xff, 0xff, 0x2e, 0xf8, 0xff, 0xff, 0xc9, 0x02, 0x00, 0x00,
  0xf5, 0xf0, 0xff, 0xff, 0x0d, 0xfd, 0xff, 0xff, 0xb4, 0xfe, 0xff, 0xff,
  0x2b, 0xe4, 0xff, 0xff, 0xda, 0xfb, 0xff, 0xff, 0xa5, 0x00, 0x00, 0x00,
  0xfb, 0x07, 0x00, 0x00, 0xbb, 0x1c, 0x00, 0x00, 0x37, 0x08, 0x00, 0x00,
  0x45, 0xed, 0xff, 0xff, 0xeb, 0xf4, 0xff, 0xff, 0x9c, 0x06, 0x00, 0x00,
  0xce, 0xfc, 0xff, 0xff, 0x34, 0x03, 0x00, 0x00, 0xde, 0x09, 0x00, 0x00,
  0x69, 0xf8, 0xff, 0xff, 0x42, 0xf4, 0xff, 0xff, 0xe2, 0xef, 0xff, 0xff,
  0x97, 0xf2, 0xff, 0xff, 0xd5, 0xef, 0xff, 0xff, 0xee, 0xf4, 0xff, 0xff,
  0x11, 0x10, 0x00, 0x00, 0xcc, 0x09, 0x00, 0x00, 0x82, 0xe8, 0xff, 0xff,
  0x04, 0x00, 0x00, 0x00, 0xb0, 0x01, 0x00, 0x00, 0x66, 0x0d, 0xea, 0x86,
  0xf7, 0x10, 0x2e, 0x8d, 0xb8, 0x08, 0xcd, 0x42, 0x0d, 0xf3, 0x3b, 0x7f,
  0x92, 0x81, 0x81, 0x16, 0xd8, 0x19, 0xa6, 0xd4, 0x81, 0x14, 0x81, 0x9c,
  0x3b, 0xfc, 0xf6, 0x49, 0x55, 0xe2, 0xce, 0x1c, 0x72, 0xbf, 0x81, 0x62,
  0xe0, 0xfc, 0xa3, 0x17, 0xb5, 0xf5, 0xfa, 0x01, 0xda, 0x81, 0xe0, 0x4b,
  0xa5, 0xf0, 0x81, 0x1e, 0xba, 0x1e, 0x86, 0x4e, 0x81, 0xf5, 0xc5, 0x89,
  0xea, 0x82, 0xff, 0x1a, 0x71, 0x52, 0x81, 0x20, 0xdd, 0xa9, 0x8c, 0x95,
  0x00, 0x58, 0x2f, 0x61, 0x7f, 0xe6, 0xa8, 0x34, 0x36, 0xe8, 0x1e, 0x7f,
  0x66, 0xbb, 0x0f, 0x1c, 0x9a, 0x3d, 0x2a, 0xce, 0x7f, 0x45, 0x0d, 0x97,
  0xac, 0x09, 0x28, 0x3f, 0xc3, 0x53, 0xf0, 0x48, 0x82, 0xb8, 0xdf, 0xe2,
  0xe6, 0xb6, 0x02, 0x9d, 0x12, 0x92, 0xff, 0x54, 0x3d, 0x54, 0x97, 0xec,
  0xab, 0x28, 0xde, 0x76, 0x46, 0xf2, 0xcf, 0x89, 0x81, 0xd3, 0x99, 0xc0,
  0xe7, 0x21, 0x4f, 0x0b, 0x6c, 0x24, 0x1e, 0x7f, 0x1f, 0x50, 0xaa, 0xee,
  0x02, 0xc7, 0x4c, 0x81, 0xc6, 0xe9, 0xbf, 0xea, 0x00, 0x0d, 0x81, 0x47,
  0xed, 0xcd, 0x44, 0x05, 0xeb, 0xdd, 0x00, 0x81, 0x2e, 0xd6, 0xe1, 0xb4,
  0x7f, 0x7f, 0xde, 0xce, 0x16, 0xec, 0x7f, 0x81, 0xf4, 0xbf, 0x77, 0xc9,
  0xc0, 0xe0, 0xcb, 0x50, 0x61, 0xc6, 0x39, 0x16, 0x9c, 0x44, 0x0a, 0x2a,
  0x1a, 0xe0, 0xe3, 0xf1, 0x4a, 0x22, 0x87, 0xef, 0x9c, 0x74, 0x3c, 0x23,
  0x81, 0x61, 0x9a, 0xf1, 0xe8, 0x50, 0xfc, 0xa9, 0x2a, 0x93, 0x3a, 0x40,
  0x42, 0xeb, 0x09, 0xdd, 0xfe, 0x1a, 0x4a, 0xe2, 0x16, 0x74, 0x6d, 0x60,
  0xf4, 0x01, 0x55, 0xb2, 0x81, 0xb1, 0x44, 0x52, 0xaf, 0x9f, 0x1c, 0x7f,
  0x09, 0x1a, 0x69, 0xd2, 0x06, 0x20, 0xf5, 0x2f, 0x01, 0x4c, 0x5f, 0x7e,
  0x18, 0x12, 0xce, 0xc6, 0x7f, 0x36, 0xa3, 0x29, 0xa8, 0xf5, 0x38, 0x0e,
  0x51, 0x03, 0x07, 0x99, 0x2f, 0xfb, 0x43, 0x19, 0xe2, 0x7f, 0xc8, 0x0e,
  0xec, 0xc2, 0x81, 0x90, 0xe7, 0x79, 0x7f, 0xbc, 0xca, 0x46, 0x17, 0x7c,
  0x81, 0x5f, 0x33, 0xe7, 0x81, 0xff, 0xc4, 0xf8, 0x18, 0xae, 0xe5, 0xfb,
  0x38, 0x4c, 0x13, 0x07, 0xe5, 0x69, 0x29, 0x20, 0x26, 0x8a, 0xa5, 0x23,
  0xe1, 0xf1, 0x21, 0xf1, 0x59, 0x81, 0x25, 0x9f, 0x3b, 0xd3, 0x9b, 0xcf,
  0xbf, 0x81, 0x83, 0x81, 0x6e, 0xd4, 0x2f, 0xad, 0xb9, 0x1e, 0xc1, 0x1d,
  0x99, 0x7f, 0x87, 0xa7, 0xd7, 0x92, 0x7f, 0xc4, 0x04, 0x4c, 0xe5, 0x33,
  0xcf, 0x94, 0xa3, 0xfc, 0xba, 0x7f, 0x43, 0xf9, 0x1b, 0x81, 0xa0, 0x7f,
  0xab, 0xa8, 0x7f, 0x81, 0x0b, 0xfb, 0x4d, 0x10, 0xc0, 0x84, 0xcf, 0x87,
  0x7f, 0xdf, 0x01, 0xd3, 0x06, 0x81, 0x0e, 0x9e, 0x41, 0xb8, 0x81, 0x96,
  0xc6, 0x3e, 0x92, 0xea, 0x38, 0x81, 0xfa, 0x81, 0xd8, 0x7f, 0x0c, 0x37,
  0x76, 0xed, 0x3a, 0x81, 0xa9, 0xc7, 0xd9, 0x0b, 0xf8, 0xfb, 0xce, 0x15,
  0x1e, 0x00, 0x0d, 0xd2, 0x2b, 0x0a, 0x04, 0x30, 0xe6, 0x7a, 0xd4, 0x64,
  0x2e, 0x36, 0xfe, 0x0f, 0xfb, 0x2c, 0x9f, 0xb9, 0x3e, 0xea, 0xff, 0xff,
  0x04, 0x00, 0x00, 0x00, 0xc0, 0x00, 0x00, 0x00, 0x1b, 0x02, 0x00, 0x00,
  0x3a, 0xfe, 0xff, 0xff, 0xe2, 0x05, 0x00, 0x00, 0xfd, 0xfc, 0xff, 0xff,
  0xe7, 0x0a, 0x00, 0x00, 0x7d, 0xfd, 0xff, 0xff, 0x37, 0x01, 0x00, 0x00,
  0x46, 0x07, 0x00, 0x00, 0xe8, 0x05, 0x00, 0x00, 0x0e, 0x01, 0x00, 0x00,
  0xbb, 0x07, 0x00, 0x00, 0x84, 0xfe, 0xff, 0xff, 0x25, 0x08, 0x00, 0x00,
  0xca, 0xf8, 0xff, 0xff, 0xe6, 0x00, 0x00, 0x00, 0x2b, 0xf8, 0xff, 0xff,
  0x2c, 0x06, 0x00, 0x00, 0x8f, 0x06, 0x00, 0x00, 0x68, 0x05, 0x00, 0x00,
  0x77, 0x06, 0x00, 0x00, 0xf6, 0x01, 0x00, 0x00, 0xfa, 0xf8, 0xff, 0xff,
  0x8f, 0x06, 0x00, 0x00, 0xaa, 0x02, 0x00, 0x00, 0x36, 0x00, 0x00, 0x00,
  0x53, 0x0c, 0x00, 0x00, 0x8c, 0x0d, 0x00, 0x00, 0xea, 0xfc, 0xff, 0xff,
  0x0f, 0xfa, 0xff, 0xff, 0xcf, 0xfa, 0xff, 0xff, 0x9a, 0xfc, 0xff, 0xff,
  0xa7, 0x00, 0x00, 0x00, 0x69, 0xf4, 0xff, 0xff, 0x78, 0x04, 0x00, 0x00,
  0x80, 0xfa, 0xff, 0xff, 0xaa, 0x04, 0x00, 0x00, 0x15, 0x00, 0x00, 0x00,
  0x16, 0xff, 0xff, 0xff, 0x10, 0x02, 0x00, 0x00, 0x2a, 0xfc, 0xff, 0xff,
  0x77, 0xfe, 0xff, 0xff, 0x6a, 0x07, 0x00, 0x00, 0x3f, 0x04, 0x00, 0x00,
  0x02, 0x05, 0x00, 0x00, 0x66, 0x01, 0x00, 0x00, 0x2e, 0x02, 0x00, 0x00,
  0xca, 0xf7, 0xff, 0xff, 0x62, 0x02, 0x00, 0x00, 0x0a, 0xeb, 0xff, 0xff,
  0x04, 0x00, 0x00, 0x00, 0x00, 0x09, 0x00, 0x00, 0x3a, 0xfb, 0xe1, 0xd4,
  0x01, 0xa6, 0xf4, 0x0b, 0x7f, 0x36, 0xc6, 0xc2, 0x42, 0x34, 0xee, 0x41,
  0x9b, 0x2f, 0xfa, 0xbb, 0x09, 0xa2, 0x14, 0x3a, 0xcf, 0x37, 0xd8, 0x4c,
  0x33, 0x4d, 0xd9, 0xfd, 0xff, 0x18, 0xec, 0xfa, 0x17, 0xfa, 0x47, 0x49,
  0xc5, 0x37, 0x14, 0x0e, 0x26, 0xb9, 0x01, 0x24, 0xfa, 0xf6, 0x19, 0xdf,
  0x34, 0xa3, 0xd6, 0x81, 0xe7, 0x1a, 0xf6, 0x54, 0x3c, 0x1c, 0x9e, 0xfb,
  0x55, 0x2e, 0xff, 0x85, 0xc6, 0xd5, 0x3b, 0xe3, 0xa0, 0xd3, 0xbb, 0x33,
  0x68, 0x0c, 0x01, 0x23, 0x02, 0x5f, 0x4c, 0x00, 0x4d, 0xe0, 0x0a, 0x19,
  0xb2, 0x20, 0x68, 0xeb, 0xc3, 0x3c, 0x16, 0xc9, 0x8e, 0x1a, 0xd1, 0x08,
  0xa7, 0xab, 0x63, 0xa5, 0xfe, 0x60, 0xb6, 0x5c, 0xc7, 0xde, 0x18, 0xec,
  0xd7, 0x5d, 0x0b, 0x95, 0x2b, 0xf3, 0x07, 0xe3, 0xe7, 0xb1, 0x5e, 0xe5,
  0x96, 0x4d, 0x81, 0x49, 0x21, 0xc6, 0xaa, 0xdd, 0x3b, 0xf3, 0x96, 0x2a,
  0x41, 0xc0, 0x93, 0xde, 0xb9, 0x65, 0x45, 0xee, 0xe7, 0xe2, 0x32, 0x60,
  0x44, 0xa8, 0x61, 0xf2, 0x20, 0xad, 0x45, 0x43, 0x0e, 0xf4, 0xda, 0xb9,
  0x14, 0xae, 0x5d, 0x6a, 0x3f, 0xd1, 0x2c, 0xd6, 0x41, 0x46, 0x10, 0xc8,
  0x3d, 0x54, 0x1c, 0x08, 0xd3, 0x4e, 0x44, 0x97, 0xfe, 0x6b, 0x7f, 0x00,
  0x90, 0x21, 0xfb, 0xe6, 0xac, 0xd6, 0xe2, 0x85, 0xa4, 0x63, 0xbc, 0xdd,
  0x0e, 0xa6, 0x3e, 0xfd, 0xf1, 0xc3, 0x2b, 0x01, 0xf3, 0x74, 0x8c, 0x9a,
  0xe7, 0x01, 0x15, 0xe5, 0xbc, 0x09, 0xf7, 0xcd, 0xa3, 0xd4, 0xcd, 0x07,
  0x3c, 0x41, 0xc7, 0xbc, 0xbe, 0xbd, 0x72, 0x54, 0xd7, 0x61, 0x7f, 0xba,
  0x2f, 0x55, 0xbe, 0x26, 0x1a, 0x6c, 0xdc, 0x2e, 0xb1, 0x53, 0x46, 0xd8,
  0x36, 0xda, 0xc0, 0x2d, 0x0a, 0xbd, 0x0b, 0xe3, 0x41, 0xfb, 0x11, 0x71,
  0xd7, 0x13, 0xdf, 0xc7, 0xa2, 0x05, 0xd0, 0x52, 0x34, 0x20, 0x6b, 0x7c,
  0x72, 0x7f, 0xa4, 0xe6, 0xa9, 0xfd, 0x14, 0x5b, 0xcc, 0x9b, 0xe8, 0x97,
  0x3c, 0x90, 0xf2, 0x9f, 0xa6, 0x51, 0xd2, 0xec, 0x59, 0xa2, 0x08, 0xa7,
  0x1c, 0xf2, 0x4e, 0x51, 0x2e, 0xc9, 0x70, 0x4c, 0x38, 0xce, 0xde, 0x18,
  0x68, 0xcc, 0xa9, 0x9e, 0x0d, 0x42, 0x49, 0x37, 0xaf, 0x07, 0x7a, 0x50,
  0xe7, 0x0f, 0xba, 0xaa, 0x20, 0x5a, 0x7f, 0xc3, 0x3c, 0x41, 0xfa, 0xa5,
  0x18, 0xdb, 0xbb, 0xec, 0x5b, 0xc6, 0x33, 0x0d, 0x1d, 0xc4, 0xe7, 0x27,
  0x21, 0xe6, 0xd9, 0x10, 0x81, 0x95, 0xc5, 0xe8, 0xa9, 0x16, 0x03, 0xd3,
  0x9b, 0xf1, 0x26, 0xe4, 0x3c, 0x37, 0x88, 0x9a, 0x1c, 0xe0, 0x2b, 0x49,
  0x33, 0xd6, 0x67, 0xef, 0x43, 0xbc, 0x75, 0x6b, 0x7b, 0x0e, 0x7b, 0x69,
  0x67, 0x4f, 0x12, 0xe3, 0xff, 0xa1, 0x4f, 0xf7, 0xa5, 0xcb, 0x04, 0x50,
  0xe6, 0xfd, 0x91, 0x0d, 0x10, 0x9a, 0xe5, 0xa2, 0x4d, 0xe7, 0x7f, 0xbe,
  0x72, 0x53, 0x0e, 0xb4, 0xad, 0x55, 0x3c, 0xf7, 0x54, 0xd8, 0x37, 0x8f,
  0x2a, 0x02, 0x70, 0x88, 0x22, 0xac, 0xbf, 0xb2, 0xed, 0xf2, 0x28, 0x33,
  0xf1, 0x38, 0xe7, 0xe5, 0x45, 0xec, 0xaa, 0xbb, 0xdd, 0xea, 0x5d, 0x56,
  0x40, 0xb2, 0x3d, 0xa2, 0x2c, 0x4e, 0xe8, 0x71, 0x30, 0xbf, 0x08, 0x55,
  0xe0, 0x98, 0xb9, 0xaf, 0x4c, 0x51, 0xb6, 0xc0, 0xf1, 0x09, 0xf1, 0xeb,
  0x81, 0x17, 0xc4, 0xb3, 0x2c, 0x9e, 0x92, 0xcd, 0xd6, 0x33, 0xb9, 0x1f,
  0x3a, 0xd5, 0x68, 0xba, 0x6b, 0xc5, 0xde, 0x41, 0xec, 0x9a, 0xc6, 0xf8,
  0x37, 0x69, 0xb4, 0x5f, 0x26, 0xdb, 0x58, 0xd8, 0x30, 0x47, 0x37, 0xbf,
  0x1c, 0x00, 0xa7, 0xc3, 0x16, 0xeb, 0xce, 0x15, 0xdf, 0xcd, 0xc9, 0x9a,
  0x45, 0xf5, 0xd0, 0x3c, 0xdc, 0x75, 0xf9, 0xee, 0xf3, 0x62, 0x3f, 0x7f,
  0x5e, 0x46, 0x5f, 0x42, 0xf7, 0xd1, 0xde, 0x1f, 0x51, 0x4f, 0xcb, 0xde,
  0xec, 0x22, 0xcf, 0x02, 0x1a, 0x43, 0x07, 0xf7, 0x02, 0x0e, 0xd4, 0x4c,
  0xbb, 0xf7, 0x0b, 0x49, 0xc6, 0x4a, 0xf3, 0x02, 0x53, 0x95, 0x4f, 0xc4,
  0xce, 0x0e, 0x7f, 0x53, 0xf1, 0xe8, 0x4d, 0x0d, 0xc8, 0x18, 0x33, 0x1c,
  0xe7, 0x3a, 0x2e, 0x57, 0x1b, 0xae, 0x4d, 0xf2, 0xe8, 0xc9, 0x51, 0xf3,
  0xae, 0xcd, 0x1f, 0xf8, 0x49, 0x2e, 0x06, 0xda, 0x21, 0x4f, 0x3e, 0x52,
  0x30, 0x0e, 0xd6, 0x61, 0xd1, 0xd7, 0x81, 0x31, 0xe5, 0x26, 0x0a, 0xac,
  0x63, 0xf0, 0xcc, 0xf2, 0x4d, 0xb7, 0xe1, 0xc5, 0x1b, 0x18, 0xb7, 0xae,
  0xc1, 0x85, 0xf9, 0xb0, 0x45, 0xf9, 0x17, 0xec, 0x56, 0x07, 0xa8, 0xd8,
  0xce, 0x46, 0x4b, 0xde, 0x14, 0x0a, 0xa0, 0x93, 0x42, 0xa0, 0xe7, 0x56,
  0xf7, 0xcd, 0xd2, 0xf7, 0x06, 0x21, 0x09, 0x0d, 0xe2, 0x1c, 0xf2, 0xbf,
  0x30, 0xf7, 0x0a, 0x7f, 0x17, 0x6c, 0xcb, 0xa5, 0x4f, 0x3a, 0xcd, 0xee,
  0x59, 0x6b, 0xe7, 0xde, 0x48, 0x9b, 0x1d, 0xfc, 0x12, 0x6e, 0x71, 0xac,
  0x5c, 0x67, 0x43, 0x43, 0x8a, 0xa0, 0x13, 0xa0, 0xfd, 0x8e, 0x9f, 0x0c,
  0x67, 0xb2, 0x5e, 0xdb, 0x08, 0xdd, 0x10, 0x99, 0x27, 0x54, 0x91, 0x51,
  0xf3, 0x30, 0x7c, 0x76, 0x81, 0xbd, 0xf7, 0x44, 0x21, 0xce, 0x06, 0xc6,
  0xad, 0x5b, 0x15, 0xb4, 0x0d, 0xdd, 0x5a, 0x5f, 0xa0, 0x4a, 0xcc, 0x2c,
  0x03, 0xa8, 0x27, 0x3d, 0x1c, 0xdc, 0xd9, 0x41, 0x1c, 0x53, 0xc6, 0x2f,
  0xb9, 0xd1, 0xa3, 0x2d, 0xa4, 0x9f, 0x81, 0x4d, 0x46, 0xf5, 0x10, 0x65,
  0x1c, 0x1c, 0x50, 0x50, 0x98, 0x3a, 0xe8, 0xf2, 0x01, 0xd4, 0x09, 0x58,
  0x52, 0x5e, 0xcd, 0x9b, 0x97, 0x1d, 0x9a, 0x52, 0xbd, 0xb1, 0x64, 0xb9,
  0x2e, 0xed, 0x12, 0x76, 0x1a, 0x81, 0x19, 0xdf, 0xf7, 0xb5, 0x21, 0x71,
  0x08, 0x64, 0x4a, 0x33, 0x41, 0x9b, 0x86, 0x01, 0xf6, 0xcc, 0x9d, 0xbe,
  0xff, 0x41, 0x46, 0x34, 0xc1, 0x16, 0x61, 0xf9, 0xa4, 0x4e, 0xec, 0x21,
  0x0e, 0xb8, 0x64, 0x6d, 0x11, 0x42, 0xc9, 0xd1, 0x1e, 0x38, 0xa7, 0x2d,
  0x1f, 0x33, 0xe0, 0x37, 0x0d, 0xb3, 0xe5, 0x40, 0x21, 0x37, 0x12, 0x20,
  0xf1, 0xbe, 0xc2, 0x4a, 0xe6, 0xe3, 0x23, 0xb1, 0xa6, 0xa5, 0x7f, 0x2d,
  0xa5, 0xc0, 0x28, 0xa1, 0x22, 0x0b, 0xba, 0xc5, 0x40, 0x38, 0x25, 0x50,
  0xd6, 0xb8, 0xd5, 0xd7, 0xf6, 0x2f, 0xf2, 0xb0, 0xcb, 0x53, 0x1a, 0x81,
  0x46, 0x92, 0x11, 0x53, 0xd5, 0x5f, 0xe9, 0xc5, 0x02, 0x46, 0xf9, 0xb3,
  0x63, 0x10, 0xcf, 0x53, 0xc5, 0x11, 0xb4, 0xea, 0xd8, 0x4f, 0x67, 0x37,
  0xc2, 0xa9, 0x8d, 0xed, 0xed, 0x49, 0xd4, 0x40, 0xe7, 0x63, 0xec, 0x0e,
  0x9c, 0x0f, 0x9c, 0x2d, 0xb8, 0xf0, 0x0f, 0xa4, 0xd4, 0x2e, 0xb3, 0xaf,
  0x2e, 0x36, 0x60, 0x37, 0xaa, 0xf0, 0x3d, 0xb5, 0x14, 0xc0, 0x02, 0xd7,
  0x28, 0x1a, 0x22, 0x0c, 0x98, 0xf9, 0x26, 0xf1, 0xaa, 0xea, 0x47, 0x5c,
  0x79, 0x39, 0xc7, 0xfd, 0xd4, 0xb8, 0x29, 0xa7, 0x81, 0x0c, 0xdb, 0xa9,
  0x43, 0xcb, 0xa8, 0x9a, 0x29, 0x13, 0xd2, 0xcd, 0xd6, 0xdd, 0x1a, 0xb6,
  0x7b, 0xc6, 0xc6, 0xa7, 0x01, 0x65, 0xfd, 0x52, 0xad, 0x2a, 0xe8, 0x50,
  0x3f, 0x07, 0x34, 0xbe, 0xb5, 0x31, 0xc9, 0x25, 0xb4, 0xe0, 0x64, 0xf7,
  0x7f, 0x22, 0x05, 0x09, 0x75, 0x93, 0x62, 0x12, 0xb4, 0x04, 0x13, 0xb6,
  0xa3, 0x8b, 0xf2, 0x8e, 0xe6, 0xc3, 0x33, 0xcf, 0x47, 0x68, 0x3d, 0x44,
  0x3f, 0x21, 0x0e, 0x26, 0x7f, 0xce, 0x09, 0x18, 0x0b, 0x65, 0x54, 0x44,
  0x37, 0x24, 0xae, 0xf0, 0xe3, 0xc6, 0xd6, 0x9e, 0xc6, 0x2d, 0x00, 0xe2,
  0xe8, 0xdd, 0xf9, 0x15, 0xfb, 0x37, 0xbb, 0xfb, 0xb7, 0xb6, 0x41, 0xa1,
  0x5a, 0xfa, 0xd4, 0x62, 0x3a, 0xc5, 0xcc, 0xb4, 0xe0, 0x73, 0xe8, 0x70,
  0xdf, 0x8d, 0x1c, 0x2b, 0x4c, 0x26, 0x44, 0x95, 0xaa, 0x5d, 0x1d, 0x39,
  0xf0, 0x35, 0xfe, 0xab, 0xf2, 0x45, 0xcb, 0x00, 0xac, 0xe6, 0x4c, 0x71,
  0x9d, 0x22, 0x9b, 0x27, 0x76, 0x98, 0xf8, 0x53, 0xdb, 0x81, 0x5a, 0xc9,
  0xde, 0xc9, 0xc4, 0x39, 0x8a, 0x12, 0xe3, 0xcf, 0x13, 0xfd, 0x9e, 0x2a,
  0x81, 0x3d, 0xc7, 0x08, 0x96, 0xb2, 0x91, 0x3a, 0x3c, 0x53, 0x41, 0xbb,
  0xa0, 0xf0, 0x9d, 0x0d, 0xc1, 0x62, 0x45, 0xf2, 0x25, 0xed, 0x07, 0xa0,
  0x26, 0xdc, 0x07, 0x31, 0x9d, 0x57, 0xd2, 0x56, 0x08, 0xfb, 0xfc, 0x34,
  0x40, 0xc2, 0x70, 0x23, 0x51, 0xfd, 0xe1, 0x42, 0x10, 0xd1, 0x40, 0x9d,
  0x2f, 0xb9, 0x97, 0xd2, 0xac, 0x7f, 0xda, 0xb4, 0xc7, 0xc2, 0xe6, 0xa0,
  0x1d, 0xf4, 0x0c, 0xdd, 0x9e, 0x53, 0x2a, 0x40, 0x11, 0xbb, 0x3d, 0x11,
  0x3e, 0x7b, 0x10, 0xaa, 0xae, 0x4b, 0x62, 0x15, 0x8b, 0x73, 0x14, 0x22,
  0x2e, 0x0b, 0x98, 0xe7, 0xd5, 0xe7, 0x2d, 0x11, 0x6b, 0x52, 0x2d, 0xa6,
  0xef, 0x00, 0x4a, 0xb9, 0x92, 0xc1, 0x85, 0xd5, 0xba, 0x2e, 0x0f, 0xf9,
  0xd5, 0x60, 0xbc, 0xab, 0xf3, 0x7b, 0x14, 0x4c, 0xbb, 0x06, 0x2a, 0x51,
  0x6b, 0x5c, 0x31, 0xf3, 0xb4, 0xe0, 0x55, 0x2f, 0xdc, 0xa7, 0xec, 0x7f,
  0x2d, 0xa0, 0xe1, 0x50, 0x4f, 0x5c, 0x0c, 0x52, 0x5c, 0x61, 0xb6, 0x22,
  0x83, 0x7a, 0xbc, 0xa3, 0xaf, 0x0e, 0xa6, 0x13, 0xc3, 0x27, 0x19, 0xfd,
  0xd2, 0x48, 0x28, 0x2a, 0xd7, 0x7f, 0x57, 0xee, 0xd7, 0xd3, 0x44, 0xaa,
  0x13, 0xa0, 0x73, 0x70, 0xe1, 0x2c, 0xa5, 0x38, 0xb7, 0xfd, 0x3c, 0xb2,
  0x31, 0x3e, 0x4d, 0x97, 0xde, 0x62, 0xc4, 0x20, 0x49, 0xa4, 0x50, 0xd9,
  0xfc, 0xde, 0x06, 0xc3, 0xb1, 0xdb, 0xea, 0xe6, 0x34, 0xe3, 0xee, 0xf0,
  0x26, 0xfa, 0xd8, 0xbf, 0xfa, 0x3e, 0xbf, 0x59, 0x48, 0xf0, 0x39, 0xb1,
  0xbc, 0xfe, 0xbe, 0x12, 0x1a, 0x07, 0x1a, 0x51, 0x01, 0x48, 0x10, 0x00,
  0xff, 0x81, 0xfd, 0x00, 0xd8, 0xf3, 0xf2, 0xb2, 0x4a, 0x3a, 0x25, 0x00,
  0x43, 0xa1, 0x11, 0xf2, 0x45, 0x64, 0xb6, 0x59, 0xe0, 0xeb, 0x2c, 0xd8,
  0xa7, 0xdd, 0x00, 0x5f, 0xf9, 0x66, 0xb3, 0xc9, 0xcf, 0xc2, 0x28, 0x3f,
  0x2c, 0x7f, 0x83, 0xc6, 0xae, 0x4b, 0xa1, 0x0f, 0x90, 0xf8, 0xa7, 0x2f,
  0x12, 0x63, 0xbe, 0x29, 0x44, 0xb5, 0x30, 0x30, 0x3c, 0x18, 0x05, 0xb6,
  0x4b, 0x83, 0xcc, 0x1c, 0xb8, 0x5b, 0xf2, 0x1a, 0xf3, 0xd9, 0xcc, 0x07,
  0x64, 0x0a, 0xf8, 0xa5, 0x81, 0x9e, 0xd2, 0x94, 0x6c, 0x74, 0x63, 0xae,
  0xcc, 0x63, 0xa1, 0xbc, 0x4f, 0xcf, 0x11, 0xc2, 0x97, 0x24, 0xc5, 0x65,
  0x12, 0x99, 0xba, 0x9d, 0xe7, 0x73, 0x14, 0xc2, 0xa4, 0x1e, 0xa4, 0x54,
  0xc0, 0xf6, 0x10, 0x5d, 0x2e, 0xc7, 0x60, 0xe7, 0x77, 0xab, 0xfd, 0x46,
  0xd1, 0x20, 0x18, 0x1b, 0x67, 0xe5, 0x4a, 0x9e, 0x9b, 0xec, 0xc1, 0xbd,
  0xa3, 0xb0, 0x44, 0x61, 0x69, 0x81, 0x33, 0x51, 0xcc, 0xad, 0x01, 0x35,
  0x24, 0x5a, 0x31, 0xbe, 0x29, 0x2d, 0xf7, 0xd0, 0xd5, 0xc0, 0x23, 0xb7,
  0xcc, 0x98, 0x4b, 0xd9, 0xfa, 0x33, 0x07, 0x32, 0xae, 0x6d, 0x81, 0xf4,
  0x41, 0x8f, 0x1c, 0x40, 0x26, 0x73, 0x0a, 0x23, 0x3c, 0xc7, 0x19, 0x02,
  0x8f, 0x40, 0x2c, 0x36, 0x4b, 0x54, 0x5e, 0xd8, 0x5f, 0x8e, 0x58, 0xb7,
  0xa4, 0xde, 0xa0, 0xe9, 0x1f, 0x83, 0x96, 0x6b, 0x5c, 0xce, 0xa4, 0xeb,
  0x08, 0xc1, 0x3b, 0x9f, 0xf6, 0xef, 0x26, 0x02, 0x2e, 0x25, 0xb0, 0xaa,
  0xac, 0xbc, 0xe8, 0x22, 0xf8, 0x16, 0x4d, 0x29, 0xfd, 0x0b, 0xeb, 0x51,
  0xb9, 0xff, 0x7f, 0x1c, 0xbd, 0xe3, 0x0c, 0xfd, 0xb0, 0xbd, 0x77, 0x1a,
  0x15, 0x27, 0x64, 0x5d, 0x9d, 0x2b, 0xae, 0xfc, 0xb8, 0x47, 0x66, 0x43,
  0x99, 0x9c, 0x17, 0xdb, 0x34, 0xe0, 0x0e, 0xe1, 0x0a, 0xb3, 0xe9, 0xb3,
  0x50, 0xc2, 0x89, 0x0c, 0x64, 0x25, 0x20, 0xd7, 0xaa, 0xf9, 0xe4, 0x28,
  0x4d, 0xcd, 0x54, 0x2b, 0x6d, 0xb8, 0x4f, 0x4c, 0xd9, 0xc7, 0xb3, 0xda,
  0x5f, 0xf9, 0xbc, 0x81, 0xab, 0x74, 0x0f, 0xca, 0xad, 0x33, 0x4b, 0x69,
  0x73, 0xa5, 0xaf, 0x05, 0xd4, 0xaf, 0x37, 0x68, 0xc3, 0xce, 0xb4, 0x0e,
  0xb5, 0x33, 0x18, 0x34, 0xc4, 0x05, 0x03, 0xeb, 0x4e, 0xf9, 0xcf, 0x05,
  0x66, 0x55, 0x81, 0x44, 0x48, 0xa2, 0x3d, 0xab, 0x46, 0x9c, 0x06, 0x9d,
  0x3a, 0x97, 0x2d, 0xcf, 0xb7, 0x42, 0x2a, 0xea, 0x33, 0x0b, 0xc0, 0x08,
  0x25, 0xe3, 0xa8, 0x47, 0x22, 0x18, 0x04, 0xda, 0x64, 0xbc, 0xc6, 0xc2,
  0xa5, 0xf8, 0x19, 0x0e, 0x62, 0xda, 0x55, 0x3a, 0x08, 0xb3, 0x0e, 0x0c,
  0xf2, 0x46, 0x27, 0xdc, 0xdb, 0xa4, 0x7f, 0x2a, 0xf3, 0xa0, 0xf8, 0x96,
  0x21, 0x37, 0x54, 0xec, 0xe0, 0xcc, 0x2a, 0xbd, 0xdf, 0x77, 0x66, 0x7f,
  0x75, 0x1f, 0x31, 0xd7, 0x0d, 0x1d, 0xcf, 0xde, 0x2d, 0xbe, 0xa2, 0x41,
  0xd6, 0x58, 0x16, 0x4a, 0xe6, 0x1a, 0x01, 0x05, 0x9c, 0xc9, 0x10, 0xe0,
  0x0a, 0x00, 0x1f, 0xf1, 0xee, 0xae, 0x18, 0xfa, 0x51, 0x78, 0x8a, 0xcd,
  0x49, 0x2d, 0xab, 0xe8, 0x3c, 0xdd, 0xb4, 0x94, 0x3d, 0x3f, 0xf6, 0xbd,
  0xc8, 0x25, 0xe3, 0x96, 0x96, 0xe6, 0x33, 0x28, 0x53, 0x41, 0x81, 0x43,
  0xd8, 0x9c, 0xc0, 0x8f, 0xcb, 0x1f, 0x98, 0xfc, 0x1b, 0xf6, 0xe9, 0x9b,
  0x44, 0x3a, 0xde, 0x3d, 0x40, 0x96, 0x88, 0xdf, 0xf7, 0x41, 0xd6, 0x1b,
  0xd5, 0xe7, 0xdc, 0xd0, 0x46, 0xcd, 0x2b, 0x57, 0x68, 0xd6, 0x64, 0xce,
  0x11, 0xde, 0xb5, 0xb1, 0xce, 0x51, 0x6c, 0x36, 0xb8, 0x6d, 0x96, 0x14,
  0x57, 0x9c, 0x99, 0xfc, 0x88, 0xf5, 0xf4, 0x41, 0x44, 0x52, 0x2f, 0xc8,
  0xc5, 0x65, 0x41, 0xb5, 0x13, 0xdc, 0xa7, 0xa6, 0xdc, 0x0d, 0x14, 0xa4,
  0xc7, 0x81, 0x63, 0xe4, 0xc3, 0x74, 0x64, 0xb2, 0x0f, 0x5d, 0xa7, 0x2e,
  0xa9, 0x7f, 0x09, 0x55, 0xd9, 0x17, 0xd6, 0xbd, 0x39, 0xde, 0x39, 0xd4,
  0x00, 0x24, 0x02, 0xda, 0xa5, 0xb0, 0xd2, 0x0f, 0xe7, 0xca, 0xdf, 0xb3,
  0xeb, 0x3c, 0x36, 0xfd, 0x9b, 0xfe, 0xee, 0x3d, 0x2e, 0x1f, 0x38, 0x6c,
  0xd5, 0xfa, 0xd1, 0x1d, 0xaf, 0x44, 0x46, 0xdd, 0x94, 0xdf, 0x23, 0x2b,
  0x99, 0x75, 0x03, 0xa3, 0xf6, 0x1c, 0xe9, 0x2d, 0xd5, 0x73, 0x04, 0xb5,
  0x81, 0x41, 0x4f, 0x25, 0x57, 0x40, 0xc8, 0xf5, 0x4d, 0xd0, 0x8c, 0x5e,
  0x8f, 0xdf, 0xb3, 0x25, 0x15, 0x23, 0x19, 0x5a, 0x33, 0x0f, 0x5b, 0x47,
  0xfc, 0x04, 0xc4, 0x7d, 0x1a, 0xdd, 0xa4, 0x51, 0xe0, 0xc6, 0xb8, 0x52,
  0x45, 0xf1, 0xfa, 0xca, 0x14, 0xcc, 0x01, 0xbd, 0x2e, 0x4f, 0xbd, 0xf9,
  0x50, 0x5b, 0xb0, 0xd4, 0x39, 0xe5, 0x1f, 0xcc, 0x18, 0x2d, 0x21, 0xe4,
  0x3c, 0xf4, 0x00, 0x9a, 0x10, 0x42, 0x27, 0xd0, 0x0a, 0x98, 0xbd, 0xfe,
  0x10, 0x3e, 0x44, 0x3c, 0x2e, 0x7f, 0xd8, 0xea, 0xee, 0x28, 0x1b, 0xd6,
  0xbc, 0x54, 0x0c, 0xcd, 0xb5, 0x2b, 0x20, 0xff, 0x41, 0xb9, 0x52, 0xe9,
  0xc5, 0x2f, 0xcc, 0xac, 0xb3, 0x39, 0xa5, 0x50, 0x27, 0xe2, 0x81, 0xb5,
  0xc6, 0xac, 0x29, 0x32, 0xa1, 0xb6, 0x0d, 0xd0, 0x35, 0x36, 0xcf, 0x3d,
  0x6d, 0x4a, 0x13, 0x39, 0x3d, 0xbe, 0x01, 0x35, 0x01, 0xe0, 0xd4, 0x3a,
  0x9b, 0x0a, 0xde, 0xaa, 0xb0, 0x8e, 0x04, 0x68, 0x81, 0x3f, 0xe9, 0xe1,
  0xd6, 0x66, 0xd7, 0x1e, 0x17, 0xfe, 0x79, 0xe9, 0x8e, 0x52, 0x91, 0x67,
  0x83, 0x2d, 0xc2, 0x58, 0xca, 0xad, 0xbe, 0xd6, 0x46, 0x61, 0x23, 0xd4,
  0x0c, 0x9d, 0xf2, 0xca, 0x63, 0x92, 0x23, 0xba, 0xe6, 0x56, 0xee, 0x25,
  0xb9, 0x92, 0xe0, 0x10, 0x1f, 0xdf, 0x2c, 0xbd, 0x78, 0xc6, 0x2f, 0xc1,
  0xf4, 0x3a, 0x16, 0x0e, 0x59, 0x0f, 0x00, 0xd3, 0x66, 0x08, 0x3d, 0x43,
  0xd3, 0xb0, 0x83, 0xef, 0x2e, 0xe9, 0x30, 0x35, 0xa3, 0xc2, 0xee, 0xb5,
  0x02, 0x81, 0x06, 0x3f, 0xb9, 0xc6, 0x3c, 0xcb, 0x09, 0xbc, 0x14, 0x48,
  0xff, 0x2f, 0xd2, 0x0d, 0x30, 0x51, 0x06, 0xd5, 0xea, 0xb0, 0xf1, 0x4a,
  0xd5, 0x5b, 0xdb, 0xfc, 0xb0, 0x98, 0x42, 0x36, 0x25, 0xcc, 0xc0, 0x03,
  0x2c, 0x22, 0xb7, 0xe6, 0x14, 0xa6, 0x4e, 0xb8, 0x07, 0x38, 0x81, 0x49,
  0xa1, 0x31, 0xf9, 0xfe, 0x03, 0x3f, 0xfc, 0xe8, 0x82, 0xcc, 0xce, 0x25,
  0xe9, 0x65, 0x66, 0x4b, 0x01, 0xb3, 0x14, 0x47, 0x18, 0xd4, 0xdb, 0xbd,
  0x34, 0xef, 0xbe, 0x52, 0x22, 0xc3, 0x13, 0xb1, 0x16, 0xae, 0x81, 0xd9,
  0xb9, 0xf3, 0xb6, 0x6d, 0xc6, 0x33, 0xf6, 0x14, 0xe6, 0x41, 0xcd, 0x30,
  0x51, 0x0e, 0xcb, 0xce, 0x3d, 0xb8, 0x88, 0x3b, 0x1c, 0x54, 0x9a, 0xb2,
  0x6a, 0xa3, 0x02, 0x3e, 0xa3, 0xf0, 0x21, 0x4f, 0xaf, 0x14, 0x06, 0x27,
  0xed, 0xfd, 0xae, 0x5b, 0x0b, 0xf9, 0xc5, 0x36, 0xea, 0xb7, 0x7f, 0xf2,
  0x49, 0xf1, 0x85, 0xf3, 0x62, 0x1b, 0x18, 0x38, 0x2e, 0x43, 0x21, 0x2d,
  0xb8, 0xa3, 0x43, 0x17, 0x18, 0xa4, 0x0d, 0xae, 0x16, 0xf4, 0xff, 0xff,
  0x04, 0x00, 0x00, 0x00, 0xc0, 0x00, 0x00, 0x00, 0x42, 0xf9, 0xff, 0xff,
  0x89, 0xfe, 0xff, 0xff, 0xbe, 0x11, 0x00, 0x00, 0x45, 0xf5, 0xff, 0xff,
  0x83, 0x04, 0x00, 0x00, 0xda, 0x02, 0x00, 0x00, 0x98, 0xf0, 0xff, 0xff,
  0x5b, 0xf8, 0xff, 0xff, 0x18, 0x07, 0x00, 0x00, 0x41, 0x08, 0x00, 0x00,
  0x05, 0xf4, 0xff, 0xff, 0x32, 0xee, 0xff, 0xff, 0xf3, 0x06, 0x00, 0x00,
  0x7c, 0xfd, 0xff, 0xff, 0xf6, 0xf8, 0xff, 0xff, 0x2c, 0x01, 0x00, 0x00,
  0xab, 0xf9, 0xff, 0xff, 0xf8, 0x02, 0x00, 0x00, 0xb1, 0x05, 0x00, 0x00,
  0x91, 0x0e, 0x00, 0x00, 0x3d, 0x06, 0x00, 0x00, 0x9a, 0xf6, 0xff, 0xff,
  0x9c, 0x01, 0x00, 0x00, 0x5f, 0x02, 0x00, 0x00, 0xc8, 0x06, 0x00, 0x00,
  0xf7, 0xf6, 0xff, 0xff, 0x25, 0xfa, 0xff, 0xff, 0x30, 0x0a, 0x00, 0x00,
  0xa2, 0xfd, 0xff, 0xff, 0x71, 0x10, 0x00, 0x00, 0xb9, 0xfb, 0xff, 0xff,
  0x40, 0x02, 0x00, 0x00, 0x14, 0x02, 0x00, 0x00, 0x94, 0x04, 0x00, 0x00,
  0x6c, 0x02, 0x00, 0x00, 0x03, 0x01, 0x00, 0x00, 0x76, 0xf9, 0xff, 0xff,
  0x57, 0x11, 0x00, 0x00, 0x4a, 0x06, 0x00, 0x00, 0xbe, 0x01, 0x00, 0x00,
  0xb7, 0xf7, 0xff, 0xff, 0x92, 0xfa, 0xff, 0xff, 0x15, 0x07, 0x00, 0x00,
  0x88, 0x11, 0x00, 0x00, 0xf5, 0x06, 0x00, 0x00, 0xf4, 0x01, 0x00, 0x00,
  0xed, 0x0b, 0x00, 0x00, 0x2e, 0xfc, 0xff, 0xff, 0xe2, 0xf4, 0xff, 0xff,
  0x04, 0x00, 0x00, 0x00, 0x00, 0x09, 0x00, 0x00, 0xa5, 0xd0, 0x81, 0x9d,
  0x5d, 0xa8, 0x1f, 0x46, 0x91, 0xdc, 0x08, 0xaf, 0x89, 0x24, 0xae, 0xf8,
  0xb6, 0xa8, 0x23, 0x28, 0xd4, 0x0d, 0x7a, 0xff, 0xc0, 0x7a, 0x14, 0x34,
  0x15, 0x9e, 0x73, 0xb2, 0xd1, 0x69, 0xd1, 0x7a, 0x97, 0xb3, 0x44, 0x8a,
  0x9b, 0x01, 0x99, 0x95, 0x55, 0xbf, 0x56, 0x0e, 0x96, 0x04, 0x66, 0x11,
  0xd4, 0xf0, 0x4e, 0x0a, 0xa1, 0xc6, 0xc6, 0xce, 0x06, 0xc2, 0x2d, 0x94,
  0x6d, 0x2a, 0x73, 0x0b, 0xfe, 0xe9, 0xfe, 0x8b, 0x99, 0xd9, 0xf1, 0x2c,
  0x3e, 0x5a, 0x3e, 0xf5, 0xa6, 0x05, 0xbe, 0x7f, 0xd4, 0xee, 0x49, 0x61,
  0x2f, 0xb6, 0xa6, 0x50, 0x65, 0x26, 0x97, 0x2e, 0x2f, 0x3c, 0xfe, 0x1c,
  0x65, 0x20, 0x34, 0xdb, 0xa3, 0x9d, 0x0d, 0x9b, 0x1c, 0x32, 0xac, 0x1c,
  0xf4, 0x61, 0x6c, 0xd7, 0x37, 0xe4, 0xed, 0x21, 0x08, 0x46, 0x81, 0xd5,
  0xb4, 0x56, 0x21, 0x46, 0xbb, 0x29, 0x4a, 0xe0, 0xa8, 0x2e, 0xf2, 0xa4,
  0x07, 0xa2, 0x08, 0xd1, 0x06, 0xdb, 0xe9, 0x3d, 0xba, 0x39, 0x25, 0x81,
  0xf8, 0x32, 0x0b, 0x90, 0x39, 0x9c, 0x65, 0xdd, 0x8a, 0xb2, 0x52, 0x4d,
  0x5e, 0x32, 0xf7, 0xa5, 0x9e, 0xed, 0x43, 0x0f, 0x30, 0xdf, 0x2a, 0x5b,
  0xd3, 0xc3, 0x14, 0xed, 0x2b, 0x07, 0xf8, 0xeb, 0x2c, 0xff, 0x0a, 0x44,
  0x56, 0xb1, 0x82, 0xa7, 0xb3, 0x8c, 0xaa, 0x9a, 0xaf, 0xf3, 0x20, 0x23,
  0x3d, 0xd6, 0x06, 0x8d, 0xfd, 0x24, 0x0f, 0x1c, 0x1f, 0x81, 0x19, 0x86,
  0xc1, 0x9f, 0xd8, 0x85, 0xe2, 0x01, 0xc9, 0x35, 0x74, 0x5f, 0xf2, 0x26,
  0xac, 0x3a, 0x9e, 0x3d, 0xac, 0xfa, 0x10, 0x8a, 0x3e, 0xc7, 0xe8, 0xaa,
  0x94, 0xe9, 0x2f, 0xef, 0xc7, 0x0c, 0xba, 0xab, 0xc5, 0x97, 0xb6, 0x3e,
  0xd3, 0x48, 0xd6, 0xed, 0xfb, 0x69, 0xc8, 0x01, 0xfe, 0x03, 0x9e, 0x31,
  0x93, 0x63, 0x4b, 0xf5, 0x71, 0xbb, 0x02, 0xd4, 0xf0, 0xb7, 0x35, 0x56,
  0x52, 0x04, 0x6b, 0xeb, 0xcb, 0xf9, 0x83, 0xed, 0x8c, 0xdb, 0xe9, 0xbe,
  0x33, 0xa4, 0xab, 0xfd, 0x13, 0x62, 0xf7, 0x81, 0xe2, 0x8d, 0x0f, 0xd6,
  0x83, 0xc2, 0x95, 0x38, 0x3a, 0xe7, 0x16, 0xef, 0x5a, 0x2e, 0xa6, 0x9e,
  0x9e, 0x35, 0x4c, 0x02, 0x82, 0x2b, 0x96, 0xd9, 0x05, 0x39, 0x3d, 0x00,
  0x56, 0x1e, 0xf6, 0xc6, 0x6d, 0x3f, 0x40, 0xaf, 0x3b, 0x8c, 0x18, 0x5a,
  0x81, 0xe0, 0x06, 0xf8, 0x81, 0x57, 0xcb, 0xef, 0x31, 0x56, 0x04, 0x8a,
  0x5f, 0xeb, 0xf2, 0x21, 0x0c, 0x44, 0xcc, 0x22, 0x3e, 0x81, 0xb0, 0x49,
  0x00, 0x05, 0xcd, 0x20, 0x3d, 0xe1, 0xc5, 0xe1, 0xf5, 0xe2, 0x06, 0xe2,
  0xb7, 0x32, 0x98, 0x4a, 0x30, 0xef, 0x24, 0x31, 0x4c, 0xa6, 0x16, 0x53,
  0xf1, 0x08, 0xa9, 0x4a, 0x25, 0xe6, 0xc2, 0x1a, 0xe0, 0x7a, 0x82, 0x49,
  0x1d, 0x90, 0x81, 0xa3, 0x88, 0xe9, 0x35, 0xfa, 0xf6, 0x09, 0x87, 0x3b,
  0xa6, 0x3f, 0x97, 0xd9, 0x5b, 0x03, 0xd3, 0x2f, 0x0e, 0x87, 0xdb, 0x91,
  0x85, 0xae, 0x6f, 0xa8, 0x24, 0x5c, 0xf2, 0xfe, 0x8a, 0x4f, 0xd5, 0xf7,
  0x0c, 0xa0, 0x60, 0x3a, 0xc3, 0x95, 0x35, 0x5d, 0xd6, 0xe1, 0xca, 0xa8,
  0xeb, 0x29, 0x3f, 0xe8, 0x71, 0xb1, 0x16, 0xbb, 0xd7, 0x9f, 0x92, 0xdf,
  0x26, 0xfd, 0x92, 0xf2, 0x7f, 0x81, 0x2d, 0xc4, 0x69, 0xf2, 0x5e, 0x1f,
  0x93, 0xc4, 0x84, 0x6d, 0x09, 0xd9, 0xbc, 0x4e, 0xb3, 0xc5, 0x9b, 0x2a,
  0x1b, 0x4f, 0x6c, 0x89, 0x16, 0x0c, 0xa0, 0x8a, 0x4d, 0x12, 0x48, 0x8a,
  0xbd, 0xc9, 0x90, 0xea, 0xcd, 0x30, 0xc6, 0x6d, 0x8f, 0xcf, 0x3b, 0x65,
  0x2b, 0xe4, 0x18, 0xc4, 0x40, 0xb8, 0xf2, 0x9b, 0x2c, 0x7f, 0xcf, 0x8b,
  0xe0, 0xb1, 0x49, 0x97, 0xc8, 0xa6, 0xc2, 0x26, 0xbb, 0x35, 0x37, 0x8c,
  0xb8, 0x21, 0xd9, 0xd7, 0xad, 0x37, 0x35, 0x48, 0xe1, 0xcd, 0xb3, 0x4d,
  0x5c, 0x86, 0x98, 0xcd, 0x12, 0xfe, 0xfe, 0x41, 0x04, 0x81, 0x68, 0x31,
  0xcb, 0x95, 0x4d, 0xad, 0xbe, 0xc3, 0x3b, 0xd7, 0xdc, 0x33, 0x17, 0x33,
  0x49, 0x02, 0x92, 0x6a, 0x8f, 0xaf, 0xd0, 0xd6, 0xff, 0x37, 0x2d, 0xf5,
  0x08, 0xf9, 0xcd, 0xd5, 0x01, 0xfb, 0xcc, 0xc4, 0x9f, 0x09, 0x29, 0xc9,
  0x97, 0x7f, 0x0c, 0x8e, 0x3e, 0x3e, 0x2a, 0x1b, 0x5b, 0x81, 0xe3, 0xa9,
  0x5e, 0x25, 0xc1, 0xa2, 0xf7, 0xfa, 0xfc, 0x53, 0xb6, 0x09, 0x5e, 0xcc,
  0x54, 0x12, 0x97, 0xc2, 0xb2, 0x1c, 0xe3, 0xca, 0x2e, 0xfd, 0xa2, 0xfb,
  0xc6, 0xa3, 0xce, 0x29, 0x28, 0xa2, 0xa6, 0xba, 0x81, 0xa4, 0x03, 0x8a,
  0xe4, 0x0b, 0xaa, 0x00, 0x5f, 0xe9, 0xa5, 0x57, 0x6c, 0xf4, 0x5d, 0x9a,
  0x4d, 0x1d, 0x57, 0xa3, 0x34, 0x3d, 0xbc, 0xdc, 0x8c, 0xf3, 0xfb, 0x03,
  0xcf, 0x46, 0xcd, 0x22, 0xe5, 0x3c, 0xa8, 0x86, 0xf5, 0x56, 0x7d, 0xb4,
  0x5b, 0x18, 0x44, 0xe8, 0x39, 0xfb, 0x31, 0x2f, 0x83, 0x43, 0xf6, 0xf1,
  0x33, 0x42, 0xe9, 0xbd, 0xbb, 0x34, 0x2d, 0x4e, 0xc3, 0x93, 0x22, 0xe6,
  0xa8, 0x4a, 0xdf, 0xff, 0x8f, 0xf1, 0x76, 0xe9, 0x2e, 0x96, 0x8e, 0xb3,
  0x51, 0x35, 0xe5, 0xdb, 0x9d, 0x91, 0x6e, 0x51, 0x66, 0x49, 0x43, 0xc9,
  0x28, 0x51, 0x3b, 0x6d, 0xf5, 0x15, 0x81, 0x25, 0xc5, 0xad, 0xa7, 0xec,
  0x61, 0x13, 0x33, 0x61, 0x2a, 0xb1, 0xec, 0xfc, 0x69, 0xec, 0xe7, 0x70,
  0x8c, 0x5e, 0x6a, 0xa7, 0x16, 0x8a, 0x4e, 0xb8, 0xb4, 0x97, 0x0d, 0xef,
  0x81, 0x6d, 0xe8, 0xcc, 0xc6, 0x8f, 0xab, 0x4e, 0xb2, 0xb2, 0x15, 0xa9,
  0x2b, 0xb1, 0xf3, 0x93, 0xc0, 0xf6, 0x03, 0x2e, 0xc0, 0xc5, 0xcc, 0x4c,
  0xc7, 0x51, 0x81, 0x66, 0x60, 0xaa, 0xe1, 0xad, 0x26, 0x9c, 0x25, 0x96,
  0x3a, 0x5b, 0x12, 0x6d, 0x2e, 0xcf, 0x91, 0x28, 0xd8, 0x8f, 0x37, 0x91,
  0x17, 0xc8, 0xcb, 0x14, 0xe9, 0x86, 0xb1, 0xce, 0x93, 0x3c, 0xbb, 0xb1,
  0xaf, 0x93, 0x40, 0x81, 0x4c, 0xf1, 0xff, 0x1d, 0xec, 0xcf, 0x8f, 0x05,
  0x63, 0x81, 0x17, 0x4c, 0x15, 0x40, 0xea, 0x1e, 0xc8, 0xf3, 0x0f, 0xd9,
  0x64, 0xcd, 0x87, 0xa6, 0x86, 0xeb, 0xd5, 0x43, 0x66, 0x09, 0x21, 0x91,
  0xd2, 0x89, 0x1b, 0xf3, 0xec, 0x36, 0xd0, 0xd0, 0xd5, 0x5c, 0x0f, 0x58,
  0x77, 0x51, 0x34, 0xe5, 0x00, 0x40, 0x58, 0x4c, 0xb4, 0xc1, 0x58, 0x26,
  0xfe, 0x14, 0x0f, 0xae, 0xbc, 0xc5, 0x8c, 0xfa, 0xcb, 0xdf, 0x81, 0x14,
  0x92, 0x85, 0x64, 0xe7, 0xd0, 0x94, 0xb9, 0xa6, 0x9a, 0xdb, 0x5b, 0xe1,
  0xa6, 0xfc, 0x55, 0xdb, 0x34, 0x1c, 0xd7, 0x31, 0xea, 0xd2, 0x2c, 0x1c,
  0x2c, 0x3d, 0x40, 0xd0, 0xba, 0xf6, 0x3b, 0x13, 0xe4, 0x38, 0x56, 0xa8,
  0x12, 0xcd, 0xa9, 0x50, 0xe9, 0x57, 0x99, 0x03, 0x6d, 0x2e, 0x0a, 0xd7,
  0xe6, 0x43, 0x68, 0x27, 0xfb, 0xfc, 0xd9, 0x31, 0x68, 0x94, 0xd8, 0x81,
  0x2d, 0xac, 0xef, 0xdf, 0x0a, 0xa4, 0xdb, 0xfd, 0x3d, 0xea, 0xac, 0x3d,
  0x89, 0xfa, 0xbf, 0x33, 0x5b, 0x3e, 0x89, 0x44, 0x81, 0x2d, 0x14, 0x6a,
  0xeb, 0x13, 0xe7, 0x53, 0x2a, 0x33, 0xdb, 0xd8, 0xf0, 0x4c, 0xff, 0x4b,
  0x13, 0x20, 0x13, 0xf3, 0x1a, 0x32, 0x38, 0x94, 0x36, 0xe0, 0xbd, 0x95,
  0x95, 0x89, 0x8f, 0x23, 0xe8, 0xc0, 0x5f, 0x4b, 0x8b, 0xeb, 0xe0, 0x94,
  0x9c, 0x00, 0x61, 0xea, 0x9d, 0x1f, 0xdd, 0xe6, 0xa3, 0xa6, 0x3e, 0xde,
  0x5c, 0xaf, 0x03, 0xca, 0xbe, 0x49, 0x41, 0x57, 0x2b, 0x28, 0xcc, 0x2b,
  0x0e, 0x2b, 0x2d, 0x43, 0xb1, 0xf2, 0xbf, 0x81, 0x50, 0xbf, 0xfc, 0x5d,
  0x40, 0xe4, 0x9f, 0xc0, 0xfd, 0x6f, 0x09, 0x14, 0xf3, 0xba, 0x1d, 0xd7,
  0x27, 0x3d, 0xdc, 0xda, 0x2c, 0x47, 0xff, 0x45, 0x03, 0x2b, 0xa9, 0xbe,
  0xe5, 0xed, 0xc3, 0xf8, 0x2c, 0x8f, 0xbc, 0x74, 0x15, 0xbc, 0x76, 0xfe,
  0xfa, 0x0f, 0xd0, 0xe5, 0xda, 0x3a, 0x81, 0x45, 0xa3, 0x93, 0x46, 0x49,
  0x30, 0xfe, 0x69, 0x61, 0x7a, 0xe4, 0x0f, 0x14, 0xb7, 0x02, 0x10, 0x62,
  0x03, 0x36, 0xbb, 0x5a, 0x9a, 0x61, 0x07, 0xb2, 0x90, 0xb7, 0x15, 0xe3,
  0xd6, 0x39, 0xfc, 0x3f, 0xaa, 0x25, 0x44, 0x61, 0xbd, 0x08, 0x11, 0x98,
  0x0d, 0x3a, 0x6d, 0xf4, 0xef, 0x6e, 0x41, 0x49, 0x59, 0x3a, 0xfb, 0x84,
  0xd8, 0xc9, 0x81, 0xf3, 0x67, 0x0a, 0xab, 0xad, 0xfd, 0xe7, 0xce, 0x37,
  0x34, 0x95, 0x6c, 0x74, 0x9f, 0x6f, 0x32, 0x8e, 0xa1, 0xf8, 0x43, 0x5e,
  0x0e, 0x60, 0xb3, 0xd9, 0x57, 0x22, 0x3c, 0x1f, 0x8d, 0x3b, 0xdb, 0x7f,
  0x60, 0x0c, 0xe9, 0x72, 0xc6, 0x0f, 0x1a, 0xf8, 0xc7, 0xf9, 0x2b, 0xc0,
  0x94, 0x1d, 0x2d, 0xd3, 0xaf, 0x93, 0xed, 0xd0, 0x42, 0xb6, 0xf7, 0xd6,
  0x0b, 0xc8, 0xe4, 0x00, 0x68, 0x00, 0x35, 0xee, 0xc0, 0x46, 0x86, 0x89,
  0xf7, 0x4a, 0xf3, 0xce, 0x1e, 0xc1, 0x53, 0x5b, 0xba, 0x0a, 0x24, 0xb7,
  0xa3, 0x0b, 0x73, 0x0f, 0x92, 0x6a, 0xd3, 0x42, 0xc5, 0x8f, 0xbe, 0x36,
  0x49, 0x57, 0x58, 0xc6, 0x9b, 0x94, 0x09, 0x3a, 0x70, 0xe0, 0x1b, 0x6d,
  0x81, 0x2a, 0xca, 0x35, 0x8d, 0xeb, 0xb2, 0x8d, 0xba, 0x47, 0x54, 0x95,
  0xcc, 0xbd, 0x5a, 0xd4, 0x81, 0x5f, 0xf8, 0xe6, 0xb2, 0xd1, 0x46, 0xa7,
  0xf6, 0xab, 0x6c, 0x9c, 0x5a, 0xea, 0xcf, 0x36, 0x4e, 0x83, 0xa5, 0xa8,
  0x39, 0xb0, 0x51, 0x5a, 0x28, 0x70, 0x98, 0xcd, 0x4c, 0xfc, 0xe0, 0xae,
  0x3d, 0x9d, 0x98, 0x6d, 0x45, 0xb6, 0xa5, 0xfd, 0x8e, 0x07, 0xed, 0x8e,
  0x21, 0xc2, 0x05, 0x2a, 0x88, 0xd5, 0x25, 0x89, 0xd8, 0x67, 0x54, 0xb5,
  0x61, 0x0e, 0x99, 0xc7, 0xa6, 0x34, 0xe4, 0x55, 0xb5, 0x53, 0x50, 0x16,
  0x16, 0xad, 0x3e, 0x70, 0x70, 0x5c, 0x1c, 0xa7, 0x5a, 0xc8, 0x81, 0xe0,
  0x35, 0x2f, 0x7e, 0x3a, 0xea, 0x15, 0xbf, 0xd1, 0x7a, 0x1a, 0x25, 0xfc,
  0xc8, 0xac, 0xfc, 0x33, 0xab, 0x49, 0xe4, 0xa2, 0x13, 0x01, 0x81, 0xa2,
  0x94, 0xad, 0x10, 0x01, 0x19, 0xda, 0xc1, 0x49, 0xad, 0x50, 0x6f, 0xce,
  0xdb, 0x23, 0x5a, 0xb0, 0x32, 0xe2, 0xe5, 0x89, 0x49, 0xf4, 0xaf, 0x37,
  0x13, 0x4d, 0x15, 0xd7, 0x6b, 0xaf, 0x6c, 0x92, 0xd3, 0x26, 0x6d, 0xa9,
  0x3c, 0x62, 0x0f, 0x2c, 0xb6, 0x6e, 0xde, 0xbb, 0xe4, 0xe1, 0xa9, 0xdb,
  0xdc, 0x14, 0xdb, 0x8b, 0x20, 0x44, 0x23, 0x8f, 0xe4, 0x82, 0xee, 0x3d,
  0x4f, 0x7f, 0xfd, 0x5c, 0xbb, 0x93, 0x2e, 0x8d, 0xdc, 0x2d, 0x37, 0x3d,
  0x2a, 0x07, 0xbb, 0x75, 0xf8, 0x7f, 0x3e, 0xc9, 0x67, 0x32, 0x4e, 0xae,
  0x8b, 0x81, 0xb8, 0xa4, 0x98, 0x27, 0x6b, 0x5c, 0x37, 0x48, 0xf4, 0x19,
  0xf9, 0xd6, 0x94, 0xed, 0xa2, 0x53, 0x9f, 0x65, 0xad, 0xd6, 0xaa, 0xf2,
  0xd5, 0x69, 0xe6, 0x63, 0x8c, 0xbd, 0x1d, 0x4f, 0xc6, 0x1d, 0x67, 0x99,
  0xa6, 0x56, 0xc7, 0xf4, 0xde, 0x46, 0x96, 0xea, 0x08, 0xd5, 0xdc, 0x21,
  0x97, 0xa4, 0xca, 0xfd, 0x36, 0x5d, 0x99, 0x10, 0xe9, 0xd9, 0xc1, 0x53,
  0xae, 0x6c, 0x2c, 0xf4, 0x9d, 0x12, 0xce, 0x57, 0x31, 0x81, 0xd2, 0x3d,
  0xde, 0x0d, 0x94, 0xfa, 0x3b, 0xa6, 0x3f, 0xda, 0x31, 0xa0, 0x93, 0x08,
  0x5b, 0x97, 0x2a, 0x0c, 0x72, 0x06, 0xcc, 0x33, 0x83, 0x3b, 0x1d, 0x95,
  0xb1, 0xdd, 0x68, 0x36, 0x24, 0xe4, 0x84, 0x3e, 0xd8, 0x0e, 0x61, 0xe7,
  0x06, 0xf6, 0x06, 0x81, 0x82, 0xb0, 0x18, 0xd9, 0x15, 0x8a, 0x24, 0x54,
  0x63, 0x99, 0x8d, 0xbb, 0xc2, 0x01, 0x94, 0x41, 0x1b, 0xb5, 0x2c, 0x2f,
  0x64, 0xf9, 0x2b, 0x27, 0xa2, 0xba, 0x67, 0x90, 0x5e, 0x69, 0x40, 0x33,
  0x7f, 0xcd, 0x73, 0x53, 0xdd, 0xa2, 0xae, 0xca, 0xd8, 0xcd, 0x23, 0xad,
  0x1a, 0x58, 0x5a, 0x05, 0xea, 0x19, 0xf0, 0xea, 0x34, 0xb4, 0xa0, 0x98,
  0x73, 0x18, 0xb7, 0x43, 0x2d, 0xbc, 0x78, 0x63, 0xc6, 0x95, 0xc2, 0xc0,
  0x0e, 0x9a, 0xd3, 0x14, 0x25, 0xa6, 0x0b, 0xe3, 0x60, 0x66, 0x25, 0x4d,
  0xa4, 0xd5, 0x8f, 0x36, 0x55, 0xb5, 0x19, 0x64, 0x03, 0xc7, 0x07, 0x47,
  0x61, 0x31, 0xb7, 0x87, 0x81, 0xac, 0xbe, 0xc3, 0x9f, 0xaf, 0x3a, 0x3f,
  0x54, 0x88, 0x95, 0x51, 0xd7, 0x41, 0x4f, 0x0f, 0xec, 0x3a, 0xb2, 0x18,
  0x62, 0xae, 0x54, 0x1f, 0xe3, 0xa4, 0x6a, 0x13, 0x40, 0x0e, 0x1d, 0xd0,
  0xf8, 0xd5, 0x2c, 0xf4, 0xec, 0xc0, 0xa1, 0xdc, 0x01, 0x0d, 0x15, 0x36,
  0xb6, 0x27, 0xf3, 0x24, 0x7f, 0xb0, 0x09, 0xb3, 0xdf, 0x07, 0x3a, 0xd7,
  0x0a, 0xe6, 0xe0, 0x1d, 0xbf, 0x71, 0x5c, 0x5d, 0x59, 0xcb, 0x2d, 0xf7,
  0xc4, 0x02, 0x47, 0x15, 0xe0, 0x6c, 0xb1, 0xd9, 0xc9, 0xd0, 0xe6, 0x9f,
  0xaf, 0x42, 0xd7, 0xe1, 0x27, 0x0d, 0x32, 0xfc, 0xd6, 0xc9, 0x4a, 0x9b,
  0x55, 0xbf, 0xb6, 0x66, 0x81, 0x06, 0xf3, 0xff, 0x27, 0x38, 0x30, 0x2c,
  0xed, 0xff, 0x87, 0x4b, 0xa4, 0x66, 0xb2, 0x87, 0x87, 0xfa, 0xc7, 0xe1,
  0x6b, 0x06, 0x52, 0xc6, 0xa0, 0x05, 0xcd, 0x64, 0xc6, 0xda, 0x32, 0xc5,
  0x66, 0xfe, 0x96, 0x64, 0x5f, 0xae, 0x33, 0x48, 0x6a, 0x81, 0xe0, 0xc0,
  0x44, 0x8f, 0xaa, 0x1c, 0x12, 0x53, 0x71, 0x42, 0xb3, 0xa9, 0xad, 0x65,
  0xa1, 0x08, 0xdb, 0x9d, 0x03, 0xae, 0x43, 0x12, 0x4a, 0x65, 0xca, 0x36,
  0xf8, 0xc8, 0xc6, 0x32, 0xa7, 0xe3, 0x47, 0x63, 0xce, 0xbe, 0x07, 0xd3,
  0x03, 0xea, 0xd3, 0xdc, 0x08, 0xca, 0x6a, 0x7f, 0x27, 0x00, 0xdd, 0x0b,
  0xab, 0x91, 0xa2, 0x72, 0xff, 0xbd, 0xf8, 0x2a, 0x98, 0x24, 0xce, 0x47,
  0x03, 0x08, 0x6f, 0x20, 0xf5, 0x9b, 0xc3, 0x50, 0x43, 0x67, 0x0d, 0x67,
  0x21, 0xbe, 0x59, 0x48, 0xf2, 0x8e, 0x03, 0xaa, 0x9b, 0x20, 0x9e, 0xf8,
  0xd7, 0x81, 0x1a, 0x3f, 0x41, 0x64, 0x9e, 0x2a, 0x74, 0x91, 0x35, 0x09,
  0x92, 0xf7, 0x63, 0x9b, 0xe5, 0x2b, 0xe9, 0x55, 0x67, 0x2b, 0x48, 0xaa,
  0xb2, 0x37, 0xc7, 0x3e, 0x3a, 0xfa, 0x27, 0xda, 0xf1, 0xaa, 0xdd, 0x2a,
  0xa9, 0xea, 0xaf, 0xfd, 0xa1, 0x5b, 0xc0, 0xe5, 0x4d, 0x08, 0xe6, 0x4d,
  0x38, 0x8d, 0xd9, 0x0e, 0x16, 0x43, 0x3f, 0xda, 0xab, 0x3b, 0x59, 0x05,
  0x28, 0xf4, 0xe6, 0xd5, 0x81, 0xcf, 0xf4, 0xfe, 0xde, 0xaf, 0x3b, 0xd0,
  0xda, 0x22, 0xd1, 0x42, 0xeb, 0x8f, 0x40, 0xe0, 0x35, 0xfa, 0x51, 0x40,
  0x47, 0xfd, 0x15, 0xcf, 0x9b, 0xff, 0x58, 0x30, 0x18, 0xf3, 0xb3, 0x89,
  0xce, 0xf7, 0xa7, 0x70, 0x94, 0xa1, 0x29, 0xf4, 0xe7, 0xd6, 0x16, 0x7f,
  0xe0, 0x7a, 0xca, 0xe6, 0xc0, 0x8f, 0x86, 0xec, 0x87, 0xaf, 0x06, 0x81,
  0x9f, 0x23, 0x96, 0x15, 0x9a, 0x76, 0xb6, 0x13, 0x32, 0x74, 0xba, 0x09,
  0x4b, 0x11, 0xb0, 0xc4, 0x0f, 0xd4, 0x6c, 0x1a, 0x9c, 0xf2, 0xf2, 0xed,
  0xcb, 0x81, 0x29, 0xec, 0xac, 0xa9, 0xfc, 0xae, 0x07, 0xf6, 0x37, 0x87,
  0xf5, 0x3e, 0xf6, 0x08, 0xfc, 0x11, 0xae, 0xfd, 0xd8, 0xec, 0x8a, 0x62,
  0xdc, 0x39, 0x93, 0x1e, 0x02, 0x28, 0x20, 0x2a, 0x57, 0x50, 0xa9, 0x5a,
  0xd3, 0xed, 0xed, 0x16, 0x53, 0xf3, 0x6e, 0x1f, 0x18, 0x23, 0x64, 0xd1,
  0xec, 0xbc, 0x2d, 0x61, 0x5a, 0x28, 0xee, 0x48, 0x2c, 0xa7, 0x97, 0x1b,
  0xbc, 0xca, 0x3c, 0x3c, 0x41, 0xec, 0x5a, 0x98, 0xab, 0xe6, 0x81, 0xfe,
  0x63, 0xcc, 0xea, 0x1f, 0x09, 0xbe, 0x45, 0x29, 0xe8, 0x28, 0x51, 0x2e,
  0x05, 0x48, 0xf6, 0xc7, 0x42, 0x16, 0xa1, 0xd5, 0xed, 0xeb, 0x22, 0x29,
  0x0c, 0xb2, 0x15, 0x6c, 0xb4, 0xa6, 0xa9, 0x57, 0xaa, 0xda, 0x33, 0xf6,
  0x5b, 0x77, 0x45, 0x3b, 0xb6, 0xa0, 0x2d, 0x98, 0xac, 0x16, 0xbb, 0x29,
  0x33, 0xe4, 0x22, 0x30, 0xf8, 0x21, 0x5f, 0x25, 0x13, 0xfa, 0x94, 0x1b,
  0x8a, 0xdd, 0xdc, 0x5c, 0x28, 0xde, 0xa4, 0x81, 0x43, 0xd0, 0x49, 0x0e,
  0x10, 0x0c, 0x69, 0xcd, 0xbb, 0xc9, 0xf3, 0x0d, 0x5d, 0x64, 0xec, 0x0d,
  0x99, 0x00, 0x9c, 0x81, 0x9f, 0x6f, 0x14, 0xf3, 0x5a, 0x60, 0x7d, 0xe7,
  0xd5, 0x94, 0x02, 0x9f, 0x6a, 0xca, 0x22, 0xeb, 0xd0, 0xb0, 0xdf, 0x30,
  0x64, 0xfb, 0x72, 0x4a, 0x61, 0xb0, 0x93, 0xda, 0xe1, 0xcb, 0x97, 0x77,
  0xb4, 0x52, 0xeb, 0x34, 0xe2, 0xaa, 0x7f, 0xdd, 0x85, 0xc4, 0x9b, 0x89,
  0x11, 0xcd, 0xec, 0xbc, 0x1b, 0xd0, 0x0a, 0xb3, 0x07, 0x4f, 0x63, 0x08,
  0x84, 0x25, 0x39, 0xb6, 0x3c, 0x73, 0xb5, 0xb4, 0x42, 0xe4, 0x5d, 0xbc,
  0xa5, 0x9c, 0x9e, 0x96, 0x4d, 0x74, 0xba, 0x73, 0x1d, 0xbf, 0xba, 0x05,
  0x04, 0x45, 0x17, 0x4d, 0x4f, 0xb3, 0x81, 0x8e, 0x5b, 0xe7, 0xb9, 0x17,
  0x08, 0xa8, 0x0f, 0xf5, 0xd1, 0x31, 0x06, 0xe9, 0x6e, 0x70, 0x04, 0x23,
  0x2a, 0xfc, 0x28, 0xdc, 0x50, 0x8a, 0x05, 0x14, 0xbb, 0x9a, 0x4a, 0x83,
  0x5d, 0xec, 0x37, 0xee, 0x8b, 0xa6, 0xb9, 0x75, 0xee, 0xfd, 0xff, 0xff,
  0x04, 0x00, 0x00, 0x00, 0xc0, 0x00, 0x00, 0x00, 0x98, 0xfe, 0xff, 0xff,
  0x88, 0xff, 0xff, 0xff, 0x74, 0xfc, 0xff, 0xff, 0xe1, 0xfa, 0xff, 0xff,
  0xb9, 0xfd, 0xff, 0xff, 0xf0, 0xfc, 0xff, 0xff, 0xc3, 0xfc, 0xff, 0xff,
  0xfe, 0xf8, 0xff, 0xff, 0x57, 0xfd, 0xff, 0xff, 0x00, 0x00, 0x00, 0x00,
  0x61, 0x00, 0x00, 0x00, 0x57, 0xfa, 0xff, 0xff, 0x00, 0x00, 0x00, 0x00,
  0x27, 0xff, 0xff, 0xff, 0xfa, 0xf8, 0xff, 0xff, 0x7c, 0xfa, 0xff, 0xff,
  0x03, 0xfe, 0xff, 0xff, 0xd2, 0xff, 0xff, 0xff, 0xa8, 0xfc, 0xff, 0xff,
  0x87, 0xfc, 0xff, 0xff, 0xe8, 0xfc, 0xff, 0xff, 0x27, 0xfc, 0xff, 0xff,
  0x57, 0x03, 0x00, 0x00, 0x43, 0xfc, 0xff, 0xff, 0xd7, 0x04, 0x00, 0x00,
  0x73, 0xfe, 0xff, 0xff, 0x4b, 0xfd, 0xff, 0xff, 0xd6, 0xfc, 0xff, 0xff,
  0x30, 0xfc, 0xff, 0xff, 0x67, 0xfb, 0xff, 0xff, 0x1d, 0xfc, 0xff, 0xff,
  0xd5, 0x04, 0x00, 0x00, 0xab, 0xfc, 0xff, 0xff, 0x64, 0x01, 0x00, 0x00,
  0x5e, 0x00, 0x00, 0x00, 0x66, 0x03, 0x00, 0x00, 0x84, 0xfd, 0xff, 0xff,
  0xd5, 0xfb, 0xff, 0xff, 0x2d, 0x03, 0x00, 0x00, 0x30, 0xfe, 0xff, 0xff,
  0xa2, 0xfc, 0xff, 0xff, 0x00, 0x00, 0x00, 0x00, 0x1e, 0xfc, 0xff, 0xff,
  0x15, 0xff, 0xff, 0xff, 0xbf, 0xfd, 0xff, 0xff, 0xe2, 0xfa, 0xff, 0xff,
  0xf7, 0xfc, 0xff, 0xff, 0xcb, 0xfa, 0xff, 0xff, 0xba, 0xfe, 0xff, 0xff,
  0x04, 0x00, 0x00, 0x00, 0x60, 0x00, 0x00, 0x00, 0x7f, 0x53, 0x67, 0x6d,
  0x2b, 0x56, 0x30, 0x6b, 0xfa, 0x5f, 0xb7, 0xce, 0x5f, 0x49, 0x28, 0x34,
  0x1c, 0x2a, 0x3c, 0x9a, 0xbc, 0x77, 0x8e, 0xbd, 0xab, 0x9f, 0xa2, 0xf6,
  0x6c, 0x02, 0x47, 0xc3, 0xc1, 0x01, 0xd4, 0x24, 0xab, 0xd8, 0xcc, 0x4e,
  0x8e, 0x49, 0x56, 0xe8, 0xf0, 0xb5, 0x57, 0x4b, 0x00, 0x06, 0xc4, 0x9d,
  0xb3, 0x59, 0x26, 0xd6, 0x98, 0xa1, 0x81, 0xe5, 0x20, 0x39, 0xa3, 0xa6,
  0x3d, 0x65, 0xf1, 0xf4, 0xd0, 0x6f, 0xa9, 0x47, 0xba, 0x2e, 0x77, 0x2e,
  0x37, 0x92, 0x82, 0x43, 0xbf, 0xa7, 0x3a, 0x0b, 0x5f, 0xb6, 0x29, 0x5c,
  0x11, 0xdb, 0x77, 0xbe, 0x0d, 0x25, 0x68, 0x4a, 0x26, 0xff, 0xff, 0xff,
  0x04, 0x00, 0x00, 0x00, 0x08, 0x00, 0x00, 0x00, 0x61, 0x00, 0x00, 0x00,
  0x95, 0xff, 0xff, 0xff, 0x3a, 0xff, 0xff, 0xff, 0x04, 0x00, 0x00, 0x00,
  0x08, 0x00, 0x00, 0x00, 0x01, 0x00, 0x00, 0x00, 0x02, 0x00, 0x00, 0x00,
  0x44, 0xba, 0xff, 0xff, 0x48, 0xba, 0xff, 0xff, 0x0f, 0x00, 0x00, 0x00,
  0x4d, 0x4c, 0x49, 0x52, 0x20, 0x43, 0x6f, 0x6e, 0x76, 0x65, 0x72, 0x74,
  0x65, 0x64, 0x2e, 0x00, 0x01, 0x00, 0x00, 0x00, 0x14, 0x00, 0x00, 0x00,
  0x00, 0x00, 0x0e, 0x00, 0x18, 0x00, 0x14, 0x00, 0x10, 0x00, 0x0c, 0x00,
  0x08, 0x00, 0x04, 0x00, 0x0e, 0x00, 0x00, 0x00, 0x14, 0x00, 0x00, 0x00,
  0x1c, 0x00, 0x00, 0x00, 0x54, 0x04, 0x00, 0x00, 0x58, 0x04, 0x00, 0x00,
  0x5c, 0x04, 0x00, 0x00, 0x04, 0x00, 0x00, 0x00, 0x6d, 0x61, 0x69, 0x6e,
  0x00, 0x00, 0x00, 0x00, 0x0f, 0x00, 0x00, 0x00, 0xf0, 0x03, 0x00, 0x00,
  0x88, 0x03, 0x00, 0x00, 0x28, 0x03, 0x00, 0x00, 0xe0, 0x02, 0x00, 0x00,
  0x84, 0x02, 0x00, 0x00, 0x34, 0x02, 0x00, 0x00, 0xec, 0x01, 0x00, 0x00,
  0xa8, 0x01, 0x00, 0x00, 0x60, 0x01, 0x00, 0x00, 0x20, 0x01, 0x00, 0x00,
  0xe8, 0x00, 0x00, 0x00, 0xb4, 0x00, 0x00, 0x00, 0x78, 0x00, 0x00, 0x00,
  0x40, 0x00, 0x00, 0x00, 0x04, 0x00, 0x00, 0x00, 0xbe, 0xfc, 0xff, 0xff,
  0x1c, 0x00, 0x00, 0x00, 0x00, 0x00, 0x00, 0x09, 0x1c, 0x00, 0x00, 0x00,
  0x20, 0x00, 0x00, 0x00, 0x05, 0x00, 0x00, 0x00, 0x00, 0x00, 0x06, 0x00,
  0x08, 0x00, 0x04, 0x00, 0x06, 0x00, 0x00, 0x00, 0x00, 0x00, 0x80, 0x3f,
  0x01, 0x00, 0x00, 0x00, 0x26, 0x00, 0x00, 0x00, 0x01, 0x00, 0x00, 0x00,
  0x25, 0x00, 0x00, 0x00, 0x96, 0xfd, 0xff, 0xff, 0x14, 0x00, 0x00, 0x00,
  0x00, 0x00, 0x00, 0x08, 0x10, 0x00, 0x00, 0x00, 0x14, 0x00, 0x00, 0x00,
  0x04, 0x00, 0x00, 0x00, 0x2c, 0xbb, 0xff, 0xff, 0x01, 0x00, 0x00, 0x00,
  0x25, 0x00, 0x00, 0x00, 0x03, 0x00, 0x00, 0x00, 0x24, 0x00, 0x00, 0x00,
  0x03, 0x00, 0x00, 0x00, 0x02, 0x00, 0x00, 0x00, 0xca, 0xfd, 0xff, 0xff,
  0x14, 0x00, 0x00, 0x00, 0x00, 0x00, 0x00, 0x08, 0x14, 0x00, 0x00, 0x00,
  0x18, 0x00, 0x00, 0x00, 0x04, 0x00, 0x00, 0x00, 0x5e, 0xfe, 0xff, 0xff,
  0x00, 0x00, 0x00, 0x01, 0x01, 0x00, 0x00, 0x00, 0x24, 0x00, 0x00, 0x00,
  0x03, 0x00, 0x00, 0x00, 0x23, 0x00, 0x00, 0x00, 0x05, 0x00, 0x00, 0x00,
  0x04, 0x00, 0x00, 0x00, 0x02, 0xfe, 0xff, 0xff, 0x14, 0x00, 0x00, 0x00,
  0x00, 0x00, 0x00, 0x1b, 0x10, 0x00, 0x00, 0x00, 0x14, 0x00, 0x00, 0x00,
  0x03, 0x00, 0x00, 0x00, 0x98, 0xbb, 0xff, 0xff, 0x01, 0x00, 0x00, 0x00,
  0x23, 0x00, 0x00, 0x00, 0x02, 0x00, 0x00, 0x00, 0x22, 0x00, 0x00, 0x00,
  0x01, 0x00, 0x00, 0x00, 0x32, 0xfe, 0xff, 0xff, 0x14, 0x00, 0x00, 0x00,
  0x00, 0x00, 0x00, 0x0b, 0x14, 0x00, 0x00, 0x00, 0x18, 0x00, 0x00, 0x00,
  0x02, 0x00, 0x00, 0x00, 0xc6, 0xfe, 0xff, 0xff, 0x00, 0x00, 0x00, 0x01,
  0x01, 0x00, 0x00, 0x00, 0x22, 0x00, 0x00, 0x00, 0x02, 0x00, 0x00, 0x00,
  0x21, 0x00, 0x00, 0x00, 0x1f, 0x00, 0x00, 0x00, 0x62, 0xfd, 0xff, 0xff,
  0x10, 0x00, 0x00, 0x00, 0x00, 0x00, 0x00, 0x01, 0x18, 0x00, 0x00, 0x00,
  0x1c, 0x00, 0x00, 0x00, 0xae, 0xfe, 0xff, 0xff, 0x01, 0x00, 0x00, 0x00,
  0x01, 0x00, 0x00, 0x00, 0x00, 0x00, 0x00, 0x01, 0x01, 0x00, 0x00, 0x00,
  0x21, 0x00, 0x00, 0x00, 0x03, 0x00, 0x00, 0x00, 0x20, 0x00, 0x00, 0x00,
  0x07, 0x00, 0x00, 0x00, 0x06, 0x00, 0x00, 0x00, 0xa2, 0xfe, 0xff, 0xff,
  0x14, 0x00, 0x00, 0x00, 0x00, 0x00, 0x00, 0x02, 0x20, 0x00, 0x00, 0x00,
  0x24, 0x00, 0x00, 0x00, 0x01, 0x00, 0x00, 0x00, 0xf2, 0xfd, 0xff, 0xff,
  0x00, 0x00, 0x00, 0x01, 0x01, 0x00, 0x00, 0x00, 0x01, 0x00, 0x00, 0x00,
  0x01, 0x00, 0x00, 0x00, 0x01, 0x00, 0x00, 0x00, 0x20, 0x00, 0x00, 0x00,
  0x03, 0x00, 0x00, 0x00, 0x1f, 0x00, 0x00, 0x00, 0x09, 0x00, 0x00, 0x00,
  0x08, 0x00, 0x00, 0x00, 0xe2, 0xfd, 0xff, 0xff, 0x10, 0x00, 0x00, 0x00,
  0x00, 0x00, 0x00, 0x01, 0x1c, 0x00, 0x00, 0x00, 0x20, 0x00, 0x00, 0x00,
  0x94, 0xfe, 0xff, 0xff, 0x00, 0x00, 0x00, 0x01, 0x01, 0x00, 0x00, 0x00,
  0x01, 0x00, 0x00, 0x00, 0x00, 0x00, 0x00, 0x01, 0x01, 0x00, 0x00, 0x00,
  0x1f, 0x00, 0x00, 0x00, 0x03, 0x00, 0x00, 0x00, 0x1e, 0x00, 0x00, 0x00,
  0x0b, 0x00, 0x00, 0x00, 0x0a, 0x00, 0x00, 0x00, 0x26, 0xff, 0xff, 0xff,
  0x14, 0x00, 0x00, 0x00, 0x00, 0x00, 0x00, 0x02, 0x20, 0x00, 0x00, 0x00,
  0x24, 0x00, 0x00, 0x00, 0x01, 0x00, 0x00, 0x00, 0x76, 0xfe, 0xff, 0xff,
  0x00, 0x00, 0x00, 0x01, 0x01, 0x00, 0x00, 0x00, 0x02, 0x00, 0x00, 0x00,
  0x02, 0x00, 0x00, 0x00, 0x01, 0x00, 0x00, 0x00, 0x1e, 0x00, 0x00, 0x00,
  0x03, 0x00, 0x00, 0x00, 0x1d, 0x00, 0x00, 0x00, 0x0d, 0x00, 0x00, 0x00,
  0x0c, 0x00, 0x00, 0x00, 0xca, 0xfe, 0xff, 0xff, 0x1c, 0x00, 0x00, 0x00,
  0x00, 0x00, 0x00, 0x0b, 0x1c, 0x00, 0x00, 0x00, 0x20, 0x00, 0x00, 0x00,
  0x02, 0x00, 0x00, 0x00, 0x00, 0x00, 0x06, 0x00, 0x08, 0x00, 0x07, 0x00,
  0x06, 0x00, 0x00, 0x00, 0x00, 0x00, 0x00, 0x01, 0x01, 0x00, 0x00, 0x00,
  0x1d, 0x00, 0x00, 0x00, 0x02, 0x00, 0x00, 0x00, 0x1c, 0x00, 0x00, 0x00,
  0x1a, 0x00, 0x00, 0x00, 0x00, 0x00, 0x0e, 0x00, 0x16, 0x00, 0x00, 0x00,
  0x10, 0x00, 0x0c, 0x00, 0x0b, 0x00, 0x04, 0x00, 0x0e, 0x00, 0x00, 0x00,
  0x1c, 0x00, 0x00, 0x00, 0x00, 0x00, 0x00, 0x01, 0x24, 0x00, 0x00, 0x00,
  0x28, 0x00, 0x00, 0x00, 0x00, 0x00, 0x0a, 0x00, 0x10, 0x00, 0x0f, 0x00,
  0x08, 0x00, 0x04, 0x00, 0x0a, 0x00, 0x00, 0x00, 0x01, 0x00, 0x00, 0x00,
  0x01, 0x00, 0x00, 0x00, 0x00, 0x00, 0x00, 0x01, 0x01, 0x00, 0x00, 0x00,
  0x1c, 0x00, 0x00, 0x00, 0x03, 0x00, 0x00, 0x00, 0x1b, 0x00, 0x00, 0x00,
  0x0f, 0x00, 0x00, 0x00, 0x0e, 0x00, 0x00, 0x00, 0x00, 0x00, 0x0e, 0x00,
  0x18, 0x00, 0x14, 0x00, 0x10, 0x00, 0x0c, 0x00, 0x0b, 0x00, 0x04, 0x00,
  0x0e, 0x00, 0x00, 0x00, 0x14, 0x00, 0x00, 0x00, 0x00, 0x00, 0x00, 0x02,
  0x20, 0x00, 0x00, 0x00, 0x24, 0x00, 0x00, 0x00, 0x01, 0x00, 0x00, 0x00,
  0x5e, 0xff, 0xff, 0xff, 0x00, 0x00, 0x00, 0x01, 0x01, 0x00, 0x00, 0x00,
  0x01, 0x00, 0x00, 0x00, 0x01, 0x00, 0x00, 0x00, 0x01, 0x00, 0x00, 0x00,
  0x1b, 0x00, 0x00, 0x00, 0x03, 0x00, 0x00, 0x00, 0x1a, 0x00, 0x00, 0x00,
  0x11, 0x00, 0x00, 0x00, 0x10, 0x00, 0x00, 0x00, 0x4e, 0xff, 0xff, 0xff,
  0x1c, 0x00, 0x00, 0x00, 0x00, 0x00, 0x00, 0x01, 0x28, 0x00, 0x00, 0x00,
  0x2c, 0x00, 0x00, 0x00, 0x0c, 0x00, 0x14, 0x00, 0x13, 0x00, 0x0c, 0x00,
  0x08, 0x00, 0x07, 0x00, 0x0c, 0x00, 0x00, 0x00, 0x00, 0x00, 0x00, 0x01,
  0x01, 0x00, 0x00, 0x00, 0x01, 0x00, 0x00, 0x00, 0x00, 0x00, 0x00, 0x01,
  0x01, 0x00, 0x00, 0x00, 0x1a, 0x00, 0x00, 0x00, 0x03, 0x00, 0x00, 0x00,
  0x19, 0x00, 0x00, 0x00, 0x13, 0x00, 0x00, 0x00, 0x12, 0x00, 0x00, 0x00,
  0x00, 0x00, 0x0e, 0x00, 0x1a, 0x00, 0x14, 0x00, 0x10, 0x00, 0x0c, 0x00,
  0x0b, 0x00, 0x04, 0x00, 0x0e, 0x00, 0x00, 0x00, 0x24, 0x00, 0x00, 0x00,
  0x00, 0x00, 0x00, 0x02, 0x30, 0x00, 0x00, 0x00, 0x34, 0x00, 0x00, 0x00,
  0x01, 0x00, 0x00, 0x00, 0x00, 0x00, 0x0e, 0x00, 0x14, 0x00, 0x00, 0x00,
  0x10, 0x00, 0x0c, 0x00, 0x08, 0x00, 0x07, 0x00, 0x0e, 0x00, 0x00, 0x00,
  0x00, 0x00, 0x00, 0x01, 0x01, 0x00, 0x00, 0x00, 0x02, 0x00, 0x00, 0x00,
  0x02, 0x00, 0x00, 0x00, 0x01, 0x00, 0x00, 0x00, 0x19, 0x00, 0x00, 0x00,
  0x03, 0x00, 0x00, 0x00, 0x18, 0x00, 0x00, 0x00, 0x15, 0x00, 0x00, 0x00,
  0x14, 0x00, 0x00, 0x00, 0x00, 0x00, 0x0e, 0x00, 0x14, 0x00, 0x00, 0x00,
  0x10, 0x00, 0x0c, 0x00, 0x0b, 0x00, 0x04, 0x00, 0x0e, 0x00, 0x00, 0x00,
  0x1c, 0x00, 0x00, 0x00, 0x00, 0x00, 0x00, 0x01, 0x24, 0x00, 0x00, 0x00,
  0x28, 0x00, 0x00, 0x00, 0x0c, 0x00, 0x10, 0x00, 0x00, 0x00, 0x0c, 0x00,
  0x08, 0x00, 0x07, 0x00, 0x0c, 0x00, 0x00, 0x00, 0x00, 0x00, 0x00, 0x01,
  0x02, 0x00, 0x00, 0x00, 0x02, 0x00, 0x00, 0x00, 0x01, 0x00, 0x00, 0x00,
  0x18, 0x00, 0x00, 0x00, 0x03, 0x00, 0x00, 0x00, 0x00, 0x00, 0x00, 0x00,
  0x17, 0x00, 0x00, 0x00, 0x16, 0x00, 0x00, 0x00, 0x01, 0x00, 0x00, 0x00,
  0x26, 0x00, 0x00, 0x00, 0x01, 0x00, 0x00, 0x00, 0x00, 0x00, 0x00, 0x00,
  0x27, 0x00, 0x00, 0x00, 0x88, 0x41, 0x00, 0x00, 0xf4, 0x40, 0x00, 0x00,
  0x5c, 0x40, 0x00, 0x00, 0xd8, 0x3f, 0x00, 0x00, 0x0c, 0x3d, 0x00, 0x00,
  0x60, 0x3a, 0x00, 0x00, 0x3c, 0x37, 0x00, 0x00, 0x80, 0x34, 0x00, 0x00,
  0xc4, 0x30, 0x00, 0x00, 0x78, 0x2d, 0x00, 0x00, 0x1c, 0x2a, 0x00, 0x00,
  0x60, 0x27, 0x00, 0x00, 0xc4, 0x24, 0x00, 0x00, 0xac, 0x22, 0x00, 0x00,
  0xac, 0x20, 0x00, 0x00, 0x10, 0x1f, 0x00, 0x00, 0x74, 0x1c, 0x00, 0x00,
  0x5c, 0x1a, 0x00, 0x00, 0x3c, 0x18, 0x00, 0x00, 0xa0, 0x16, 0x00, 0x00,
  0x94, 0x14, 0x00, 0x00, 0x0c, 0x13, 0x00, 0x00, 0x7c, 0x11, 0x00, 0x00,
  0x70, 0x10, 0x00, 0x00, 0x3c, 0x0f, 0x00, 0x00, 0x90, 0x0d, 0x00, 0x00,
  0x5c, 0x0c, 0x00, 0x00, 0xb0, 0x0a, 0x00, 0x00, 0x9c, 0x09, 0x00, 0x00,
  0xe8, 0x08, 0x00, 0x00, 0x3c, 0x07, 0x00, 0x00, 0x08, 0x06, 0x00, 0x00,
  0x54, 0x04, 0x00, 0x00, 0x40, 0x03, 0x00, 0x00, 0x8c, 0x02, 0x00, 0x00,
  0xf8, 0x01, 0x00, 0x00, 0x2c, 0x01, 0x00, 0x00, 0x80, 0x00, 0x00, 0x00,
  0x04, 0x00, 0x00, 0x00, 0x2a, 0xbf, 0xff, 0xff, 0x00, 0x00, 0x00, 0x01,
  0x18, 0x00, 0x00, 0x00, 0x20, 0x00, 0x00, 0x00, 0x3c, 0x00, 0x00, 0x00,
  0x27, 0x00, 0x00, 0x00, 0x00, 0x00, 0x00, 0x09, 0x50, 0x00, 0x00, 0x00,
  0x02, 0x00, 0x00, 0x00, 0xff, 0xff, 0xff, 0xff, 0x02, 0x00, 0x00, 0x00,
  0x0c, 0xbf, 0xff, 0xff, 0x08, 0x00, 0x00, 0x00, 0x10, 0x00, 0x00, 0x00,
  0x01, 0x00, 0x00, 0x00, 0x80, 0xff, 0xff, 0xff, 0xff, 0xff, 0xff, 0xff,
  0x01, 0x00, 0x00, 0x00, 0x00, 0x00, 0x80, 0x3b, 0x1b, 0x00, 0x00, 0x00,
  0x53, 0x74, 0x61, 0x74, 0x65, 0x66, 0x75, 0x6c, 0x50, 0x61, 0x72, 0x74,
  0x69, 0x74, 0x69, 0x6f, 0x6e, 0x65, 0x64, 0x43, 0x61, 0x6c, 0x6c, 0x5f,
  0x31, 0x3a, 0x30, 0x00, 0x02, 0x00, 0x00, 0x00, 0x01, 0x00, 0x00, 0x00,
  0x02, 0x00, 0x00, 0x00, 0xa2, 0xbf, 0xff, 0xff, 0x00, 0x00, 0x00, 0x01,
  0x18, 0x00, 0x00, 0x00, 0x20, 0x00, 0x00, 0x00, 0x40, 0x00, 0x00, 0x00,
  0x26, 0x00, 0x00, 0x00, 0x00, 0x00, 0x00, 0x09, 0x80, 0x00, 0x00, 0x00,
  0x02, 0x00, 0x00, 0x00, 0xff, 0xff, 0xff, 0xff, 0x02, 0x00, 0x00, 0x00,
  0x84, 0xbf, 0xff, 0xff, 0x08, 0x00, 0x00, 0x00, 0x14, 0x00, 0x00, 0x00,
  0x01, 0x00, 0x00, 0x00, 0x25, 0x00, 0x00, 0x00, 0x00, 0x00, 0x00, 0x00,
  0x00, 0x00, 0x00, 0x00, 0x01, 0x00, 0x00, 0x00, 0x8f, 0x36, 0xf9, 0x3b,
  0x44, 0x00, 0x00, 0x00, 0x54, 0x69, 0x6e, 0x79, 0x52, 0x65, 0x73, 0x69,
  0x64, 0x75, 0x61, 0x6c, 0x4e, 0x65, 0x74, 0x5f, 0x31, 0x2f, 0x6f, 0x75,
  0x74, 0x70, 0x75, 0x74, 0x5f, 0x31, 0x2f, 0x4d, 0x61, 0x74, 0x4d, 0x75,
  0x6c, 0x3b, 0x54, 0x69, 0x6e, 0x79, 0x52, 0x65, 0x73, 0x69, 0x64, 0x75,
  0x61, 0x6c, 0x4e, 0x65, 0x74, 0x5f, 0x31, 0x2f, 0x6f, 0x75, 0x74, 0x70,
  0x75, 0x74, 0x5f, 0x31, 0x2f, 0x42, 0x69, 0x61, 0x73, 0x41, 0x64, 0x64,
  0x00, 0x00, 0x00, 0x00, 0x02, 0x00, 0x00, 0x00, 0x01, 0x00, 0x00, 0x00,
  0x02, 0x00, 0x00, 0x00, 0x4a, 0xc0, 0xff, 0xff, 0x00, 0x00, 0x00, 0x01,
  0x18, 0x00, 0x00, 0x00, 0x20, 0x00, 0x00, 0x00, 0x40, 0x00, 0x00, 0x00,
  0x25, 0x00, 0x00, 0x00, 0x00, 0x00, 0x00, 0x09, 0xa0, 0x00, 0x00, 0x00,
  0x02, 0x00, 0x00, 0x00, 0xff, 0xff, 0xff, 0xff, 0x30, 0x00, 0x00, 0x00,
  0x2c, 0xc0, 0xff, 0xff, 0x08, 0x00, 0x00, 0x00, 0x14, 0x00, 0x00, 0x00,
  0x01, 0x00, 0x00, 0x00, 0x80, 0xff, 0xff, 0xff, 0xff, 0xff, 0xff, 0xff,
  0x00, 0x00, 0x00, 0x00, 0x01, 0x00, 0x00, 0x00, 0x8a, 0xa8, 0xce, 0x3b,
  0x67, 0x00, 0x00, 0x00, 0x54, 0x69, 0x6e, 0x79, 0x52, 0x65, 0x73, 0x69,
  0x64, 0x75, 0x61, 0x6c, 0x4e, 0x65, 0x74, 0x5f, 0x31, 0x2f, 0x64, 0x65,
  0x6e, 0x73, 0x65, 0x5f, 0x32, 0x5f, 0x31, 0x2f, 0x4d, 0x61, 0x74, 0x4d,
  0x75, 0x6c, 0x3b, 0x54, 0x69, 0x6e, 0x79, 0x52, 0x65, 0x73, 0x69, 0x64,
  0x75, 0x61, 0x6c, 0x4e, 0x65, 0x74, 0x5f, 0x31, 0x2f, 0x64, 0x65, 0x6e,
  0x73, 0x65, 0x5f, 0x32, 0x5f, 0x31, 0x2f, 0x52, 0x65, 0x6c, 0x75, 0x3b,
  0x54, 0x69, 0x6e, 0x79, 0x52, 0x65, 0x73, 0x69, 0x64, 0x75, 0x61, 0x6c,
  0x4e, 0x65, 0x74, 0x5f, 0x31, 0x2f, 0x64, 0x65, 0x6e, 0x73, 0x65, 0x5f,
  0x32, 0x5f, 0x31, 0x2f, 0x42, 0x69, 0x61, 0x73, 0x41, 0x64, 0x64, 0x00,
  0x02, 0x00, 0x00, 0x00, 0x01, 0x00, 0x00, 0x00, 0x30, 0x00, 0x00, 0x00,
  0x12, 0xc1, 0xff, 0xff, 0x00, 0x00, 0x00, 0x01, 0x18, 0x00, 0x00, 0x00,
  0x20, 0x00, 0x00, 0x00, 0x3c, 0x00, 0x00, 0x00, 0x24, 0x00, 0x00, 0x00,
  0x00, 0x00, 0x00, 0x09, 0x68, 0x00, 0x00, 0x00, 0x02, 0x00, 0x00, 0x00,
  0xff, 0xff, 0xff, 0xff, 0x30, 0x00, 0x00, 0x00, 0xf4, 0xc0, 0xff, 0xff,
  0x08, 0x00, 0x00, 0x00, 0x10, 0x00, 0x00, 0x00, 0x01, 0x00, 0x00, 0x00,
  0x80, 0xff, 0xff, 0xff, 0xff, 0xff, 0xff, 0xff, 0x01, 0x00, 0x00, 0x00,
  0xa7, 0xea, 0x0b, 0x3c, 0x33, 0x00, 0x00, 0x00, 0x54, 0x69, 0x6e, 0x79,
  0x52, 0x65, 0x73, 0x69, 0x64, 0x75, 0x61, 0x6c, 0x4e, 0x65, 0x74, 0x5f,
  0x31, 0x2f, 0x67, 0x6c, 0x6f, 0x62, 0x61, 0x6c, 0x5f, 0x61, 0x76, 0x65,
  0x72, 0x61, 0x67, 0x65, 0x5f, 0x70, 0x6f, 0x6f, 0x6c, 0x69, 0x6e, 0x67,
  0x32, 0x64, 0x5f, 0x32, 0x5f, 0x31, 0x2f, 0x4d, 0x65, 0x61, 0x6e, 0x00,
  0x02, 0x00, 0x00, 0x00, 0x01, 0x00, 0x00, 0x00, 0x30, 0x00, 0x00, 0x00,
  0xa2, 0xc1, 0xff, 0xff, 0x00, 0x00, 0x00, 0x01, 0x18, 0x00, 0x00, 0x00,
  0x28, 0x00, 0x00, 0x00, 0x48, 0x00, 0x00, 0x00, 0x23, 0x00, 0x00, 0x00,
  0x00, 0x00, 0x00, 0x09, 0x80, 0x00, 0x00, 0x00, 0x04, 0x00, 0x00, 0x00,
  0xff, 0xff, 0xff, 0xff, 0x08, 0x00, 0x00, 0x00, 0x04, 0x00, 0x00, 0x00,
  0x30, 0x00, 0x00, 0x00, 0x8c, 0xc1, 0xff, 0xff, 0x08, 0x00, 0x00, 0x00,
  0x14, 0x00, 0x00, 0x00, 0x01, 0x00, 0x00, 0x00, 0x80, 0xff, 0xff, 0xff,
  0xff, 0xff, 0xff, 0xff, 0x00, 0x00, 0x00, 0x00, 0x01, 0x00, 0x00, 0x00,
  0x2f, 0x03, 0x4b, 0x3d, 0x3f, 0x00, 0x00, 0x00, 0x54, 0x69, 0x6e, 0x79,
  0x52, 0x65, 0x73, 0x69, 0x64, 0x75, 0x61, 0x6c, 0x4e, 0x65, 0x74, 0x5f,
  0x31, 0x2f, 0x72, 0x65, 0x5f, 0x6c, 0x75, 0x5f, 0x32, 0x34, 0x5f, 0x31,
  0x2f, 0x52, 0x65, 0x6c, 0x75, 0x3b, 0x54, 0x69, 0x6e, 0x79, 0x52, 0x65,
  0x73, 0x69, 0x64, 0x75, 0x61, 0x6c, 0x4e, 0x65, 0x74, 0x5f, 0x31, 0x2f,
  0x61, 0x64, 0x64, 0x5f, 0x33, 0x5f, 0x31, 0x2f, 0x41, 0x64, 0x64, 0x00,
  0x04, 0x00, 0x00, 0x00, 0x01, 0x00, 0x00, 0x00, 0x08, 0x00, 0x00, 0x00,
  0x04, 0x00, 0x00, 0x00, 0x30, 0x00, 0x00, 0x00, 0x52, 0xc2, 0xff, 0xff,
  0x00, 0x00, 0x00, 0x01, 0x18, 0x00, 0x00, 0x00, 0x28, 0x00, 0x00, 0x00,
  0x48, 0x00, 0x00, 0x00, 0x22, 0x00, 0x00, 0x00, 0x00, 0x00, 0x00, 0x09,
  0xe0, 0x00, 0x00, 0x00, 0x04, 0x00, 0x00, 0x00, 0xff, 0xff, 0xff, 0xff,
  0x08, 0x00, 0x00, 0x00, 0x04, 0x00, 0x00, 0x00, 0x30, 0x00, 0x00, 0x00,
  0x3c, 0xc2, 0xff, 0xff, 0x08, 0x00, 0x00, 0x00, 0x14, 0x00, 0x00, 0x00,
  0x01, 0x00, 0x00, 0x00, 0xe3, 0xff, 0xff, 0xff, 0xff, 0xff, 0xff, 0xff,
  0x00, 0x00, 0x00, 0x00, 0x01, 0x00, 0x00, 0x00, 0xca, 0xfd, 0xa5, 0x3d,
  0x9e, 0x00, 0x00, 0x00, 0x54, 0x69, 0x6e, 0x79, 0x52, 0x65, 0x73, 0x69,
  0x64, 0x75, 0x61, 0x6c, 0x4e, 0x65, 0x74, 0x5f, 0x31, 0x2f, 0x62, 0x61,
  0x74, 0x63, 0x68, 0x5f, 0x6e, 0x6f, 0x72, 0x6d, 0x61, 0x6c, 0x69, 0x7a,
  0x61, 0x74, 0x69, 0x6f, 0x6e, 0x5f, 0x32, 0x34, 0x5f, 0x31, 0x2f, 0x62,
  0x61, 0x74, 0x63, 0x68, 0x6e, 0x6f, 0x72, 0x6d, 0x2f, 0x61, 0x64, 0x64,
  0x5f, 0x31, 0x3b, 0x54, 0x69, 0x6e, 0x79, 0x52, 0x65, 0x73, 0x69, 0x64,
  0x75, 0x61, 0x6c, 0x4e, 0x65, 0x74, 0x5f, 0x31, 0x2f, 0x63, 0x6f, 0x6e,
  0x76, 0x32, 0x64, 0x5f, 0x31, 0x33, 0x5f, 0x31, 0x2f, 0x63, 0x6f, 0x6e,
  0x76, 0x6f, 0x6c, 0x75, 0x74, 0x69, 0x6f, 0x6e, 0x3b, 0x54, 0x69, 0x6e,
  0x79, 0x52, 0x65, 0x73, 0x69, 0x64, 0x75, 0x61, 0x6c, 0x4e, 0x65, 0x74,
  0x5f, 0x31, 0x2f, 0x62, 0x61, 0x74, 0x63, 0x68, 0x5f, 0x6e, 0x6f, 0x72,
  0x6d, 0x61, 0x6c, 0x69, 0x7a, 0x61, 0x74, 0x69, 0x6f, 0x6e, 0x5f, 0x32,
  0x34, 0x5f, 0x31, 0x2f, 0x62, 0x61, 0x74, 0x63, 0x68, 0x6e, 0x6f, 0x72,
  0x6d, 0x2f, 0x73, 0x75, 0x62, 0x31, 0x00, 0x00, 0x04, 0x00, 0x00, 0x00,
  0x01, 0x00, 0x00, 0x00, 0x08, 0x00, 0x00, 0x00, 0x04, 0x00, 0x00, 0x00,
  0x30, 0x00, 0x00, 0x00, 0x62, 0xc3, 0xff, 0xff, 0x00, 0x00, 0x00, 0x01,
  0x18, 0x00, 0x00, 0x00, 0x28, 0x00, 0x00, 0x00, 0x48, 0x00, 0x00, 0x00,
  0x21, 0x00, 0x00, 0x00, 0x00, 0x00, 0x00, 0x09, 0x80, 0x01, 0x00, 0x00,
  0x04, 0x00, 0x00, 0x00, 0xff, 0xff, 0xff, 0xff, 0x08, 0x00, 0x00, 0x00,
  0x04, 0x00, 0x00, 0x00, 0x30, 0x00, 0x00, 0x00, 0x4c, 0xc3, 0xff, 0xff,
  0x08, 0x00, 0x00, 0x00, 0x14, 0x00, 0x00, 0x00, 0x01, 0x00, 0x00, 0x00,
  0x80, 0xff, 0xff, 0xff, 0xff, 0xff, 0xff, 0xff, 0x00, 0x00, 0x00, 0x00,
  0x01, 0x00, 0x00, 0x00, 0xb8, 0x10, 0x4b, 0x3d, 0x3c, 0x01, 0x00, 0x00,
  0x54, 0x69, 0x6e, 0x79, 0x52, 0x65, 0x73, 0x69, 0x64, 0x75, 0x61, 0x6c,
  0x4e, 0x65, 0x74, 0x5f, 0x31, 0x2f, 0x72, 0x65, 0x5f, 0x6c, 0x75, 0x5f,
  0x32, 0x33, 0x5f, 0x31, 0x2f, 0x52, 0x65, 0x6c, 0x75, 0x3b, 0x54, 0x69,
  0x6e, 0x79, 0x52, 0x65, 0x73, 0x69, 0x64, 0x75, 0x61, 0x6c, 0x4e, 0x65,
  0x74, 0x5f, 0x31, 0x2f, 0x62, 0x61, 0x74, 0x63, 0x68, 0x5f, 0x6e, 0x6f,
  0x72, 0x6d, 0x61, 0x6c, 0x69, 0x7a, 0x61, 0x74, 0x69, 0x6f, 0x6e, 0x5f,
  0x32, 0x33, 0x5f, 0x31, 0x2f, 0x62, 0x61, 0x74, 0x63, 0x68, 0x6e, 0x6f,
  0x72, 0x6d, 0x2f, 0x61, 0x64, 0x64, 0x5f, 0x31, 0x3b, 0x54, 0x69, 0x6e,
  0x79, 0x52, 0x65, 0x73, 0x69, 0x64, 0x75, 0x61, 0x6c, 0x4e, 0x65, 0x74,
  0x5f, 0x31, 0x2f, 0x62, 0x61, 0x74, 0x63, 0x68, 0x5f, 0x6e, 0x6f, 0x72,
  0x6d, 0x61, 0x6c, 0x69, 0x7a, 0x61, 0x74, 0x69, 0x6f, 0x6e, 0x5f, 0x32,
  0x33, 0x5f, 0x31, 0x2f, 0x62, 0x61, 0x74, 0x63, 0x68, 0x6e, 0x6f, 0x72,
  0x6d, 0x2f, 0x6d, 0x75, 0x6c, 0x5f, 0x31, 0x3b, 0x54, 0x69, 0x6e, 0x79,
  0x52, 0x65, 0x73, 0x69, 0x64, 0x75, 0x61, 0x6c, 0x4e, 0x65, 0x74, 0x5f,
  0x31, 0x2f, 0x64, 0x65, 0x70, 0x74, 0x68, 0x77, 0x69, 0x73, 0x65, 0x5f,
  0x63, 0x6f, 0x6e, 0x76, 0x32, 0x64, 0x5f, 0x31, 0x30, 0x5f, 0x31, 0x2f,
  0x64, 0x65, 0x70, 0x74, 0x68, 0x77, 0x69, 0x73, 0x65, 0x3b, 0x54, 0x69,
  0x6e, 0x79, 0x52, 0x65, 0x73, 0x69, 0x64, 0x75, 0x61, 0x6c, 0x4e, 0x65,
  0x74, 0x5f, 0x31, 0x2f, 0x62, 0x61, 0x74, 0x63, 0x68, 0x5f, 0x6e, 0x6f,
  0x72, 0x6d, 0x61, 0x6c, 0x69, 0x7a, 0x61, 0x74, 0x69, 0x6f, 0x6e, 0x5f,
  0x32, 0x33, 0x5f, 0x31, 0x2f, 0x62, 0x61, 0x74, 0x63, 0x68, 0x6e, 0x6f,
  0x72, 0x6d, 0x2f, 0x6d, 0x75, 0x6c, 0x3b, 0x54, 0x69, 0x6e, 0x79, 0x52,
  0x65, 0x73, 0x69, 0x64, 0x75, 0x61, 0x6c, 0x4e, 0x65, 0x74, 0x5f, 0x31,
  0x2f, 0x62, 0x61, 0x74, 0x63, 0x68, 0x5f, 0x6e, 0x6f, 0x72, 0x6d, 0x61,
  0x6c, 0x69, 0x7a, 0x61, 0x74, 0x69, 0x6f, 0x6e, 0x5f, 0x32, 0x33, 0x5f,
  0x31, 0x2f, 0x62, 0x61, 0x74, 0x63, 0x68, 0x6e, 0x6f, 0x72, 0x6d, 0x2f,
  0x73, 0x75, 0x62, 0x31, 0x00, 0x00, 0x00, 0x00, 0x04, 0x00, 0x00, 0x00,
  0x01, 0x00, 0x00, 0x00, 0x08, 0x00, 0x00, 0x00, 0x04, 0x00, 0x00, 0x00,
  0x30, 0x00, 0x00, 0x00, 0x12, 0xc5, 0xff, 0xff, 0x00, 0x00, 0x00, 0x01,
  0x18, 0x00, 0x00, 0x00, 0x28, 0x00, 0x00, 0x00, 0x44, 0x00, 0x00, 0x00,
  0x20, 0x00, 0x00, 0x00, 0x00, 0x00, 0x00, 0x09, 0x00, 0x01, 0x00, 0x00,
  0x04, 0x00, 0x00, 0x00, 0xff, 0xff, 0xff, 0xff, 0x08, 0x00, 0x00, 0x00,
  0x04, 0x00, 0x00, 0x00, 0x30, 0x00, 0x00, 0x00, 0xfc, 0xc4, 0xff, 0xff,
  0x08, 0x00, 0x00, 0x00, 0x10, 0x00, 0x00, 0x00, 0x01, 0x00, 0x00, 0x00,
  0x80, 0xff, 0xff, 0xff, 0xff, 0xff, 0xff, 0xff, 0x01, 0x00, 0x00, 0x00,
  0x06, 0x2e, 0x27, 0x3d, 0xc0, 0x00, 0x00, 0x00, 0x54, 0x69, 0x6e, 0x79,
  0x52, 0x65, 0x73, 0x69, 0x64, 0x75, 0x61, 0x6c, 0x4e, 0x65, 0x74, 0x5f,
  0x31, 0x2f, 0x72, 0x65, 0x5f, 0x6c, 0x75, 0x5f, 0x32, 0x32, 0x5f, 0x31,
  0x2f, 0x52, 0x65, 0x6c, 0x75, 0x3b, 0x54, 0x69, 0x6e, 0x79, 0x52, 0x65,
  0x73, 0x69, 0x64, 0x75, 0x61, 0x6c, 0x4e, 0x65, 0x74, 0x5f, 0x31, 0x2f,
  0x62, 0x61, 0x74, 0x63, 0x68, 0x5f, 0x6e, 0x6f, 0x72, 0x6d, 0x61, 0x6c,
  0x69, 0x7a, 0x61, 0x74, 0x69, 0x6f, 0x6e, 0x5f, 0x32, 0x32, 0x5f, 0x31,
  0x2f, 0x62, 0x61, 0x74, 0x63, 0x68, 0x6e, 0x6f, 0x72, 0x6d, 0x2f, 0x61,
  0x64, 0x64, 0x5f, 0x31, 0x3b, 0x54, 0x69, 0x6e, 0x79, 0x52, 0x65, 0x73,
  0x69, 0x64, 0x75, 0x61, 0x6c, 0x4e, 0x65, 0x74, 0x5f, 0x31, 0x2f, 0x63,
  0x6f, 0x6e, 0x76, 0x32, 0x64, 0x5f, 0x31, 0x32, 0x5f, 0x31, 0x2f, 0x63,
  0x6f, 0x6e, 0x76, 0x6f, 0x6c, 0x75, 0x74, 0x69, 0x6f, 0x6e, 0x3b, 0x54,
  0x69, 0x6e, 0x79, 0x52, 0x65, 0x73, 0x69, 0x64, 0x75, 0x61, 0x6c, 0x4e,
  0x65, 0x74, 0x5f, 0x31, 0x2f, 0x62, 0x61, 0x74, 0x63, 0x68, 0x5f, 0x6e,
  0x6f, 0x72, 0x6d, 0x61, 0x6c, 0x69, 0x7a, 0x61, 0x74, 0x69, 0x6f, 0x6e,
  0x5f, 0x32, 0x32, 0x5f, 0x31, 0x2f, 0x62, 0x61, 0x74, 0x63, 0x68, 0x6e,
  0x6f, 0x72, 0x6d, 0x2f, 0x73, 0x75, 0x62, 0x31, 0x00, 0x00, 0x00, 0x00,
  0x04, 0x00, 0x00, 0x00, 0x01, 0x00, 0x00, 0x00, 0x08, 0x00, 0x00, 0x00,
  0x04, 0x00, 0x00, 0x00, 0x30, 0x00, 0x00, 0x00, 0x42, 0xc6, 0xff, 0xff,
  0x00, 0x00, 0x00, 0x01, 0x18, 0x00, 0x00, 0x00, 0x28, 0x00, 0x00, 0x00,
  0x44, 0x00, 0x00, 0x00, 0x1f, 0x00, 0x00, 0x00, 0x00, 0x00, 0x00, 0x09,
  0x78, 0x01, 0x00, 0x00, 0x04, 0x00, 0x00, 0x00, 0xff, 0xff, 0xff, 0xff,
  0x08, 0x00, 0x00, 0x00, 0x04, 0x00, 0x00, 0x00, 0x18, 0x00, 0x00, 0x00,
  0x2c, 0xc6, 0xff, 0xff, 0x08, 0x00, 0x00, 0x00, 0x10, 0x00, 0x00, 0x00,
  0x01, 0x00, 0x00, 0x00, 0x80, 0xff, 0xff, 0xff, 0xff, 0xff, 0xff, 0xff,
  0x01, 0x00, 0x00, 0x00, 0xe8, 0x68, 0x18, 0x3d, 0x3b, 0x01, 0x00, 0x00,
  0x54, 0x69, 0x6e, 0x79, 0x52, 0x65, 0x73, 0x69, 0x64, 0x75, 0x61, 0x6c,
  0x4e, 0x65, 0x74, 0x5f, 0x31, 0x2f, 0x72, 0x65, 0x5f, 0x6c, 0x75, 0x5f,
  0x32, 0x31, 0x5f, 0x31, 0x2f, 0x52, 0x65, 0x6c, 0x75, 0x3b, 0x54, 0x69,
  0x6e, 0x79, 0x52, 0x65, 0x73, 0x69, 0x64, 0x75, 0x61, 0x6c, 0x4e, 0x65,
  0x74, 0x5f, 0x31, 0x2f, 0x62, 0x61, 0x74, 0x63, 0x68, 0x5f, 0x6e, 0x6f,
  0x72, 0x6d, 0x61, 0x6c, 0x69, 0x7a, 0x61, 0x74, 0x69, 0x6f, 0x6e, 0x5f,
  0x32, 0x31, 0x5f, 0x31, 0x2f, 0x62, 0x61, 0x74, 0x63, 0x68, 0x6e, 0x6f,
  0x72, 0x6d, 0x2f, 0x61, 0x64, 0x64, 0x5f, 0x31, 0x3b, 0x54, 0x69, 0x6e,
  0x79, 0x52, 0x65, 0x73, 0x69, 0x64, 0x75, 0x61, 0x6c, 0x4e, 0x65, 0x74,
  0x5f, 0x31, 0x2f, 0x62, 0x61, 0x74, 0x63, 0x68, 0x5f, 0x6e, 0x6f, 0x72,
  0x6d, 0x61, 0x6c, 0x69, 0x7a, 0x61, 0x74, 0x69, 0x6f, 0x6e, 0x5f, 0x32,
  0x31, 0x5f, 0x31, 0x2f, 0x62, 0x61, 0x74, 0x63, 0x68, 0x6e, 0x6f, 0x72,
  0x6d, 0x2f, 0x6d, 0x75, 0x6c, 0x5f, 0x31, 0x3b, 0x54, 0x69, 0x6e, 0x79,
  0x52, 0x65, 0x73, 0x69, 0x64, 0x75, 0x61, 0x6c, 0x4e, 0x65, 0x74, 0x5f,
  0x31, 0x2f, 0x64, 0x65, 0x70, 0x74, 0x68, 0x77, 0x69, 0x73, 0x65, 0x5f,
  0x63, 0x6f, 0x6e, 0x76, 0x32, 0x64, 0x5f, 0x39, 0x5f, 0x31, 0x2f, 0x64,
  0x65, 0x70, 0x74, 0x68, 0x77, 0x69, 0x73, 0x65, 0x3b, 0x54, 0x69, 0x6e,
  0x79, 0x52, 0x65, 0x73, 0x69, 0x64, 0x75, 0x61, 0x6c, 0x4e, 0x65, 0x74,
  0x5f, 0x31, 0x2f, 0x62, 0x61, 0x74, 0x63, 0x68, 0x5f, 0x6e, 0x6f, 0x72,
  0x6d, 0x61, 0x6c, 0x69, 0x7a, 0x61, 0x74, 0x69, 0x6f, 0x6e, 0x5f, 0x32,
  0x31, 0x5f, 0x31, 0x2f, 0x62, 0x61, 0x74, 0x63, 0x68, 0x6e, 0x6f, 0x72,
  0x6d, 0x2f, 0x6d, 0x75, 0x6c, 0x3b, 0x54, 0x69, 0x6e, 0x79, 0x52, 0x65,
  0x73, 0x69, 0x64, 0x75, 0x61, 0x6c, 0x4e, 0x65, 0x74, 0x5f, 0x31, 0x2f,
  0x62, 0x61, 0x74, 0x63, 0x68, 0x5f, 0x6e, 0x6f, 0x72, 0x6d, 0x61, 0x6c,
  0x69, 0x7a, 0x61, 0x74, 0x69, 0x6f, 0x6e, 0x5f, 0x32, 0x31, 0x5f, 0x31,
  0x2f, 0x62, 0x61, 0x74, 0x63, 0x68, 0x6e, 0x6f, 0x72, 0x6d, 0x2f, 0x73,
  0x75, 0x62, 0x31, 0x00, 0x04, 0x00, 0x00, 0x00, 0x01, 0x00, 0x00, 0x00,
  0x08, 0x00, 0x00, 0x00, 0x04, 0x00, 0x00, 0x00, 0x18, 0x00, 0x00, 0x00,
  0xea, 0xc7, 0xff, 0xff, 0x00, 0x00, 0x00, 0x01, 0x18, 0x00, 0x00, 0x00,
  0x28, 0x00, 0x00, 0x00, 0x48, 0x00, 0x00, 0x00, 0x1e, 0x00, 0x00, 0x00,
  0x00, 0x00, 0x00, 0x09, 0x80, 0x00, 0x00, 0x00, 0x04, 0x00, 0x00, 0x00,
  0xff, 0xff, 0xff, 0xff, 0x10, 0x00, 0x00, 0x00, 0x08, 0x00, 0x00, 0x00,
  0x18, 0x00, 0x00, 0x00, 0xd4, 0xc7, 0xff, 0xff, 0x08, 0x00, 0x00, 0x00,
  0x14, 0x00, 0x00, 0x00, 0x01, 0x00, 0x00, 0x00, 0x80, 0xff, 0xff, 0xff,
  0xff, 0xff, 0xff, 0xff, 0x00, 0x00, 0x00, 0x00, 0x01, 0x00, 0x00, 0x00,
  0xa5, 0xda, 0x67, 0x3d, 0x3f, 0x00, 0x00, 0x00, 0x54, 0x69, 0x6e, 0x79,
  0x52, 0x65, 0x73, 0x69, 0x64, 0x75, 0x61, 0x6c, 0x4e, 0x65, 0x74, 0x5f,
  0x31, 0x2f, 0x72, 0x65, 0x5f, 0x6c, 0x75, 0x5f, 0x32, 0x30, 0x5f, 0x31,
  0x2f, 0x52, 0x65, 0x6c, 0x75, 0x3b, 0x54, 0x69, 0x6e, 0x79, 0x52, 0x65,
  0x73, 0x69, 0x64, 0x75, 0x61, 0x6c, 0x4e, 0x65, 0x74, 0x5f, 0x31, 0x2f,
  0x61, 0x64, 0x64, 0x5f, 0x32, 0x5f, 0x31, 0x2f, 0x41, 0x64, 0x64, 0x00,
  0x04, 0x00, 0x00, 0x00, 0x01, 0x00, 0x00, 0x00, 0x10, 0x00, 0x00, 0x00,
  0x08, 0x00, 0x00, 0x00, 0x18, 0x00, 0x00, 0x00, 0x9a, 0xc8, 0xff, 0xff,
  0x00, 0x00, 0x00, 0x01, 0x18, 0x00, 0x00, 0x00, 0x28, 0x00, 0x00, 0x00,
  0x48, 0x00, 0x00, 0x00, 0x1d, 0x00, 0x00, 0x00, 0x00, 0x00, 0x00, 0x09,
  0xe0, 0x00, 0x00, 0x00, 0x04, 0x00, 0x00, 0x00, 0xff, 0xff, 0xff, 0xff,
  0x10, 0x00, 0x00, 0x00, 0x08, 0x00, 0x00, 0x00, 0x18, 0x00, 0x00, 0x00,
  0x84, 0xc8, 0xff, 0xff, 0x08, 0x00, 0x00, 0x00, 0x14, 0x00, 0x00, 0x00,
  0x01, 0x00, 0x00, 0x00, 0xe9, 0xff, 0xff, 0xff, 0xff, 0xff, 0xff, 0xff,
  0x00, 0x00, 0x00, 0x00, 0x01, 0x00, 0x00, 0x00, 0xd0, 0x83, 0xc5, 0x3d,
  0x9e, 0x00, 0x00, 0x00, 0x54, 0x69, 0x6e, 0x79, 0x52, 0x65, 0x73, 0x69,
  0x64, 0x75, 0x61, 0x6c, 0x4e, 0x65, 0x74, 0x5f, 0x31, 0x2f, 0x62, 0x61,
  0x74, 0x63, 0x68, 0x5f, 0x6e, 0x6f, 0x72, 0x6d, 0x61, 0x6c, 0x69, 0x7a,
  0x61, 0x74, 0x69, 0x6f, 0x6e, 0x5f, 0x32, 0x30, 0x5f, 0x31, 0x2f, 0x62,
  0x61, 0x74, 0x63, 0x68, 0x6e, 0x6f, 0x72, 0x6d, 0x2f, 0x61, 0x64, 0x64,
  0x5f, 0x31, 0x3b, 0x54, 0x69, 0x6e, 0x79, 0x52, 0x65, 0x73, 0x69, 0x64,
  0x75, 0x61, 0x6c, 0x4e, 0x65, 0x74, 0x5f, 0x31, 0x2f, 0x63, 0x6f, 0x6e,
  0x76, 0x32, 0x64, 0x5f, 0x31, 0x31, 0x5f, 0x31, 0x2f, 0x63, 0x6f, 0x6e,
  0x76, 0x6f, 0x6c, 0x75, 0x74, 0x69, 0x6f, 0x6e, 0x3b, 0x54, 0x69, 0x6e,
  0x79, 0x52, 0x65, 0x73, 0x69, 0x64, 0x75, 0x61, 0x6c, 0x4e, 0x65, 0x74,
  0x5f, 0x31, 0x2f, 0x62, 0x61, 0x74, 0x63, 0x68, 0x5f, 0x6e, 0x6f, 0x72,
  0x6d, 0x61, 0x6c, 0x69, 0x7a, 0x61, 0x74, 0x69, 0x6f, 0x6e, 0x5f, 0x32,
  0x30, 0x5f, 0x31, 0x2f, 0x62, 0x61, 0x74, 0x63, 0x68, 0x6e, 0x6f, 0x72,
  0x6d, 0x2f, 0x73, 0x75, 0x62, 0x31, 0x00, 0x00, 0x04, 0x00, 0x00, 0x00,
  0x01, 0x00, 0x00, 0x00, 0x10, 0x00, 0x00, 0x00, 0x08, 0x00, 0x00, 0x00,
  0x18, 0x00, 0x00, 0x00, 0xaa, 0xc9, 0xff, 0xff, 0x00, 0x00, 0x00, 0x01,
  0x18, 0x00, 0x00, 0x00, 0x28, 0x00, 0x00, 0x00, 0x44, 0x00, 0x00, 0x00,
  0x1c, 0x00, 0x00, 0x00, 0x00, 0x00, 0x00, 0x09, 0x78, 0x01, 0x00, 0x00,
  0x04, 0x00, 0x00, 0x00, 0xff, 0xff, 0xff, 0xff, 0x10, 0x00, 0x00, 0x00,
  0x08, 0x00, 0x00, 0x00, 0x18, 0x00, 0x00, 0x00, 0x94, 0xc9, 0xff, 0xff,
  0x08, 0x00, 0x00, 0x00, 0x10, 0x00, 0x00, 0x00, 0x01, 0x00, 0x00, 0x00,
  0x80, 0xff, 0xff, 0xff, 0xff, 0xff, 0xff, 0xff, 0x01, 0x00, 0x00, 0x00,
  0xdc, 0xb3, 0x37, 0x3d, 0x3b, 0x01, 0x00, 0x00, 0x54, 0x69, 0x6e, 0x79,
  0x52, 0x65, 0x73, 0x69, 0x64, 0x75, 0x61, 0x6c, 0x4e, 0x65, 0x74, 0x5f,
  0x31, 0x2f, 0x72, 0x65, 0x5f, 0x6c, 0x75, 0x5f, 0x31, 0x39, 0x5f, 0x31,
  0x2f, 0x52, 0x65, 0x6c, 0x75, 0x3b, 0x54, 0x69, 0x6e, 0x79, 0x52, 0x65,
  0x73, 0x69, 0x64, 0x75, 0x61, 0x6c, 0x4e, 0x65, 0x74, 0x5f, 0x31, 0x2f,
  0x62, 0x61, 0x74, 0x63, 0x68, 0x5f, 0x6e, 0x6f, 0x72, 0x6d, 0x61, 0x6c,
  0x69, 0x7a, 0x61, 0x74, 0x69, 0x6f, 0x6e, 0x5f, 0x31, 0x39, 0x5f, 0x31,
  0x2f, 0x62, 0x61, 0x74, 0x63, 0x68, 0x6e, 0x6f, 0x72, 0x6d, 0x2f, 0x61,
  0x64, 0x64, 0x5f, 0x31, 0x3b, 0x54, 0x69, 0x6e, 0x79, 0x52, 0x65, 0x73,
  0x69, 0x64, 0x75, 0x61, 0x6c, 0x4e, 0x65, 0x74, 0x5f, 0x31, 0x2f, 0x62,
  0x61, 0x74, 0x63, 0x68, 0x5f, 0x6e, 0x6f, 0x72, 0x6d, 0x61, 0x6c, 0x69,
  0x7a, 0x61, 0x74, 0x69, 0x6f, 0x6e, 0x5f, 0x31, 0x39, 0x5f, 0x31, 0x2f,
  0x62, 0x61, 0x74, 0x63, 0x68, 0x6e, 0x6f, 0x72, 0x6d, 0x2f, 0x6d, 0x75,
  0x6c, 0x5f, 0x31, 0x3b, 0x54, 0x69, 0x6e, 0x79, 0x52, 0x65, 0x73, 0x69,
  0x64, 0x75, 0x61, 0x6c, 0x4e, 0x65, 0x74, 0x5f, 0x31, 0x2f, 0x64, 0x65,
  0x70, 0x74, 0x68, 0x77, 0x69, 0x73, 0x65, 0x5f, 0x63, 0x6f, 0x6e, 0x76,
  0x32, 0x64, 0x5f, 0x38, 0x5f, 0x31, 0x2f, 0x64, 0x65, 0x70, 0x74, 0x68,
  0x77, 0x69, 0x73, 0x65, 0x3b, 0x54, 0x69, 0x6e, 0x79, 0x52, 0x65, 0x73,
  0x69, 0x64, 0x75, 0x61, 0x6c, 0x4e, 0x65, 0x74, 0x5f, 0x31, 0x2f, 0x62,
  0x61, 0x74, 0x63, 0x68, 0x5f, 0x6e, 0x6f, 0x72, 0x6d, 0x61, 0x6c, 0x69,
  0x7a, 0x61, 0x74, 0x69, 0x6f, 0x6e, 0x5f, 0x31, 0x39, 0x5f, 0x31, 0x2f,
  0x62, 0x61, 0x74, 0x63, 0x68, 0x6e, 0x6f, 0x72, 0x6d, 0x2f, 0x6d, 0x75,
  0x6c, 0x3b, 0x54, 0x69, 0x6e, 0x79, 0x52, 0x65, 0x73, 0x69, 0x64, 0x75,
  0x61, 0x6c, 0x4e, 0x65, 0x74, 0x5f, 0x31, 0x2f, 0x62, 0x61, 0x74, 0x63,
  0x68, 0x5f, 0x6e, 0x6f, 0x72, 0x6d, 0x61, 0x6c, 0x69, 0x7a, 0x61, 0x74,
  0x69, 0x6f, 0x6e, 0x5f, 0x31, 0x39, 0x5f, 0x31, 0x2f, 0x62, 0x61, 0x74,
  0x63, 0x68, 0x6e, 0x6f, 0x72, 0x6d, 0x2f, 0x73, 0x75, 0x62, 0x31, 0x00,
  0x04, 0x00, 0x00, 0x00, 0x01, 0x00, 0x00, 0x00, 0x10, 0x00, 0x00, 0x00,
  0x08, 0x00, 0x00, 0x00, 0x18, 0x00, 0x00, 0x00, 0x52, 0xcb, 0xff, 0xff,
  0x00, 0x00, 0x00, 0x01, 0x18, 0x00, 0x00, 0x00, 0x28, 0x00, 0x00, 0x00,
  0x44, 0x00, 0x00, 0x00, 0x1b, 0x00, 0x00, 0x00, 0x00, 0x00, 0x00, 0x09,
  0x00, 0x01, 0x00, 0x00, 0x04, 0x00, 0x00, 0x00, 0xff, 0xff, 0xff, 0xff,
  0x10, 0x00, 0x00, 0x00, 0x08, 0x00, 0x00, 0x00, 0x18, 0x00, 0x00, 0x00,
  0x3c, 0xcb, 0xff, 0xff, 0x08, 0x00, 0x00, 0x00, 0x10, 0x00, 0x00, 0x00,
  0x01, 0x00, 0x00, 0x00, 0x80, 0xff, 0xff, 0xff, 0xff, 0xff, 0xff, 0xff,
  0x01, 0x00, 0x00, 0x00, 0x74, 0x9a, 0x0e, 0x3d, 0xc0, 0x00, 0x00, 0x00,
  0x54, 0x69, 0x6e, 0x79, 0x52, 0x65, 0x73, 0x69, 0x64, 0x75, 0x61, 0x6c,
  0x4e, 0x65, 0x74, 0x5f, 0x31, 0x2f, 0x72, 0x65, 0x5f, 0x6c, 0x75, 0x5f,
  0x31, 0x38, 0x5f, 0x31, 0x2f, 0x52, 0x65, 0x6c, 0x75, 0x3b, 0x54, 0x69,
  0x6e, 0x79, 0x52, 0x65, 0x73, 0x69, 0x64, 0x75, 0x61, 0x6c, 0x4e, 0x65,
  0x74, 0x5f, 0x31, 0x2f, 0x62, 0x61, 0x74, 0x63, 0x68, 0x5f, 0x6e, 0x6f,
  0x72, 0x6d, 0x61, 0x6c, 0x69, 0x7a, 0x61, 0x74, 0x69, 0x6f, 0x6e, 0x5f,
  0x31, 0x38, 0x5f, 0x31, 0x2f, 0x62, 0x61, 0x74, 0x63, 0x68, 0x6e, 0x6f,
  0x72, 0x6d, 0x2f, 0x61, 0x64, 0x64, 0x5f, 0x31, 0x3b, 0x54, 0x69, 0x6e,
  0x79, 0x52, 0x65, 0x73, 0x69, 0x64, 0x75, 0x61, 0x6c, 0x4e, 0x65, 0x74,
  0x5f, 0x31, 0x2f, 0x63, 0x6f, 0x6e, 0x76, 0x32, 0x64, 0x5f, 0x31, 0x30,
  0x5f, 0x31, 0x2f, 0x63, 0x6f, 0x6e, 0x76, 0x6f, 0x6c, 0x75, 0x74, 0x69,
  0x6f, 0x6e, 0x3b, 0x54, 0x69, 0x6e, 0x79, 0x52, 0x65, 0x73, 0x69, 0x64,
  0x75, 0x61, 0x6c, 0x4e, 0x65, 0x74, 0x5f, 0x31, 0x2f, 0x62, 0x61, 0x74,
  0x63, 0x68, 0x5f, 0x6e, 0x6f, 0x72, 0x6d, 0x61, 0x6c, 0x69, 0x7a, 0x61,
  0x74, 0x69, 0x6f, 0x6e, 0x5f, 0x31, 0x38, 0x5f, 0x31, 0x2f, 0x62, 0x61,
  0x74, 0x63, 0x68, 0x6e, 0x6f, 0x72, 0x6d, 0x2f, 0x73, 0x75, 0x62, 0x31,
  0x00, 0x00, 0x00, 0x00, 0x04, 0x00, 0x00, 0x00, 0x01, 0x00, 0x00, 0x00,
  0x10, 0x00, 0x00, 0x00, 0x08, 0x00, 0x00, 0x00, 0x18, 0x00, 0x00, 0x00,
  0x82, 0xcc, 0xff, 0xff, 0x00, 0x00, 0x00, 0x01, 0x18, 0x00, 0x00, 0x00,
  0x28, 0x00, 0x00, 0x00, 0x44, 0x00, 0x00, 0x00, 0x1a, 0x00, 0x00, 0x00,
  0x00, 0x00, 0x00, 0x09, 0x78, 0x01, 0x00, 0x00, 0x04, 0x00, 0x00, 0x00,
  0xff, 0xff, 0xff, 0xff, 0x10, 0x00, 0x00, 0x00, 0x08, 0x00, 0x00, 0x00,
  0x0c, 0x00, 0x00, 0x00, 0x6c, 0xcc, 0xff, 0xff, 0x08, 0x00, 0x00, 0x00,
  0x10, 0x00, 0x00, 0x00, 0x01, 0x00, 0x00, 0x00, 0x80, 0xff, 0xff, 0xff,
  0xff, 0xff, 0xff, 0xff, 0x01, 0x00, 0x00, 0x00, 0xfc, 0x18, 0x13, 0x3d,
  0x3b, 0x01, 0x00, 0x00, 0x54, 0x69, 0x6e, 0x79, 0x52, 0x65, 0x73, 0x69,
  0x64, 0x75, 0x61, 0x6c, 0x4e, 0x65, 0x74, 0x5f, 0x31, 0x2f, 0x72, 0x65,
  0x5f, 0x6c, 0x75, 0x5f, 0x31, 0x37, 0x5f, 0x31, 0x2f, 0x52, 0x65, 0x6c,
  0x75, 0x3b, 0x54, 0x69, 0x6e, 0x79, 0x52, 0x65, 0x73, 0x69, 0x64, 0x75,
  0x61, 0x6c, 0x4e, 0x65, 0x74, 0x5f, 0x31, 0x2f, 0x62, 0x61, 0x74, 0x63,
  0x68, 0x5f, 0x6e, 0x6f, 0x72, 0x6d, 0x61, 0x6c, 0x69, 0x7a, 0x61, 0x74,
  0x69, 0x6f, 0x6e, 0x5f, 0x31, 0x37, 0x5f, 0x31, 0x2f, 0x62, 0x61, 0x74,
  0x63, 0x68, 0x6e, 0x6f, 0x72, 0x6d, 0x2f, 0x61, 0x64, 0x64, 0x5f, 0x31,
  0x3b, 0x54, 0x69, 0x6e, 0x79, 0x52, 0x65, 0x73, 0x69, 0x64, 0x75, 0x61,
  0x6c, 0x4e, 0x65, 0x74, 0x5f, 0x31, 0x2f, 0x62, 0x61, 0x74, 0x63, 0x68,
  0x5f, 0x6e, 0x6f, 0x72, 0x6d, 0x61, 0x6c, 0x69, 0x7a, 0x61, 0x74, 0x69,
  0x6f, 0x6e, 0x5f, 0x31, 0x37, 0x5f, 0x31, 0x2f, 0x62, 0x61, 0x74, 0x63,
  0x68, 0x6e, 0x6f, 0x72, 0x6d, 0x2f, 0x6d, 0x75, 0x6c, 0x5f, 0x31, 0x3b,
  0x54, 0x69, 0x6e, 0x79, 0x52, 0x65, 0x73, 0x69, 0x64, 0x75, 0x61, 0x6c,
  0x4e, 0x65, 0x74, 0x5f, 0x31, 0x2f, 0x64, 0x65, 0x70, 0x74, 0x68, 0x77,
  0x69, 0x73, 0x65, 0x5f, 0x63, 0x6f, 0x6e, 0x76, 0x32, 0x64, 0x5f, 0x37,
  0x5f, 0x31, 0x2f, 0x64, 0x65, 0x70, 0x74, 0x68, 0x77, 0x69, 0x73, 0x65,
  0x3b, 0x54, 0x69, 0x6e, 0x79, 0x52, 0x65, 0x73, 0x69, 0x64, 0x75, 0x61,
  0x6c, 0x4e, 0x65, 0x74, 0x5f, 0x31, 0x2f, 0x62, 0x61, 0x74, 0x63, 0x68,
  0x5f, 0x6e, 0x6f, 0x72, 0x6d, 0x61, 0x6c, 0x69, 0x7a, 0x61, 0x74, 0x69,
  0x6f, 0x6e, 0x5f, 0x31, 0x37, 0x5f, 0x31, 0x2f, 0x62, 0x61, 0x74, 0x63,
  0x68, 0x6e, 0x6f, 0x72, 0x6d, 0x2f, 0x6d, 0x75, 0x6c, 0x3b, 0x54, 0x69,
  0x6e, 0x79, 0x52, 0x65, 0x73, 0x69, 0x64, 0x75, 0x61, 0x6c, 0x4e, 0x65,
  0x74, 0x5f, 0x31, 0x2f, 0x62, 0x61, 0x74, 0x63, 0x68, 0x5f, 0x6e, 0x6f,
  0x72, 0x6d, 0x61, 0x6c, 0x69, 0x7a, 0x61, 0x74, 0x69, 0x6f, 0x6e, 0x5f,
  0x31, 0x37, 0x5f, 0x31, 0x2f, 0x62, 0x61, 0x74, 0x63, 0x68, 0x6e, 0x6f,
  0x72, 0x6d, 0x2f, 0x73, 0x75, 0x62, 0x31, 0x00, 0x04, 0x00, 0x00, 0x00,
  0x01, 0x00, 0x00, 0x00, 0x10, 0x00, 0x00, 0x00, 0x08, 0x00, 0x00, 0x00,
  0x0c, 0x00, 0x00, 0x00, 0x2a, 0xce, 0xff, 0xff, 0x00, 0x00, 0x00, 0x01,
  0x18, 0x00, 0x00, 0x00, 0x28, 0x00, 0x00, 0x00, 0x48, 0x00, 0x00, 0x00,
  0x19, 0x00, 0x00, 0x00, 0x00, 0x00, 0x00, 0x09, 0x00, 0x01, 0x00, 0x00,
  0x04, 0x00, 0x00, 0x00, 0xff, 0xff, 0xff, 0xff, 0x20, 0x00, 0x00, 0x00,
  0x10, 0x00, 0x00, 0x00, 0x0c, 0x00, 0x00, 0x00, 0x14, 0xce, 0xff, 0xff,
  0x08, 0x00, 0x00, 0x00, 0x14, 0x00, 0x00, 0x00, 0x01, 0x00, 0x00, 0x00,
  0x80, 0xff, 0xff, 0xff, 0xff, 0xff, 0xff, 0xff, 0x00, 0x00, 0x00, 0x00,
  0x01, 0x00, 0x00, 0x00, 0xa4, 0xe7, 0x0a, 0x3d, 0xbf, 0x00, 0x00, 0x00,
  0x54, 0x69, 0x6e, 0x79, 0x52, 0x65, 0x73, 0x69, 0x64, 0x75, 0x61, 0x6c,
  0x4e, 0x65, 0x74, 0x5f, 0x31, 0x2f, 0x72, 0x65, 0x5f, 0x6c, 0x75, 0x5f,
  0x31, 0x36, 0x5f, 0x31, 0x2f, 0x52, 0x65, 0x6c, 0x75, 0x3b, 0x54, 0x69,
  0x6e, 0x79, 0x52, 0x65, 0x73, 0x69, 0x64, 0x75, 0x61, 0x6c, 0x4e, 0x65,
  0x74, 0x5f, 0x31, 0x2f, 0x62, 0x61, 0x74, 0x63, 0x68, 0x5f, 0x6e, 0x6f,
  0x72, 0x6d, 0x61, 0x6c, 0x69, 0x7a, 0x61, 0x74, 0x69, 0x6f, 0x6e, 0x5f,
  0x31, 0x36, 0x5f, 0x31, 0x2f, 0x62, 0x61, 0x74, 0x63, 0x68, 0x6e, 0x6f,
  0x72, 0x6d, 0x2f, 0x61, 0x64, 0x64, 0x5f, 0x31, 0x3b, 0x54, 0x69, 0x6e,
  0x79, 0x52, 0x65, 0x73, 0x69, 0x64, 0x75, 0x61, 0x6c, 0x4e, 0x65, 0x74,
  0x5f, 0x31, 0x2f, 0x63, 0x6f, 0x6e, 0x76, 0x32, 0x64, 0x5f, 0x39, 0x5f,
  0x31, 0x2f, 0x63, 0x6f, 0x6e, 0x76, 0x6f, 0x6c, 0x75, 0x74, 0x69, 0x6f,
  0x6e, 0x3b, 0x54, 0x69, 0x6e, 0x79, 0x52, 0x65, 0x73, 0x69, 0x64, 0x75,
  0x61, 0x6c, 0x4e, 0x65, 0x74, 0x5f, 0x31, 0x2f, 0x62, 0x61, 0x74, 0x63,
  0x68, 0x5f, 0x6e, 0x6f, 0x72, 0x6d, 0x61, 0x6c, 0x69, 0x7a, 0x61, 0x74,
  0x69, 0x6f, 0x6e, 0x5f, 0x31, 0x36, 0x5f, 0x31, 0x2f, 0x62, 0x61, 0x74,
  0x63, 0x68, 0x6e, 0x6f, 0x72, 0x6d, 0x2f, 0x73, 0x75, 0x62, 0x31, 0x00,
  0x04, 0x00, 0x00, 0x00, 0x01, 0x00, 0x00, 0x00, 0x20, 0x00, 0x00, 0x00,
  0x10, 0x00, 0x00, 0x00, 0x0c, 0x00, 0x00, 0x00, 0xea, 0xcf, 0xff, 0xff,
  0x00, 0x00, 0x00, 0x01, 0x14, 0x00, 0x00, 0x00, 0xb8, 0x00, 0x00, 0x00,
  0x18, 0x00, 0x00, 0x00, 0x00, 0x00, 0x00, 0x09, 0xdc, 0x00, 0x00, 0x00,
  0x2c, 0xcf, 0xff, 0xff, 0x08, 0x00, 0x00, 0x00, 0x6c, 0x00, 0x00, 0x00,
  0x0c, 0x00, 0x00, 0x00, 0x00, 0x00, 0x00, 0x00, 0x00, 0x00, 0x00, 0x00,
  0x00, 0x00, 0x00, 0x00, 0x00, 0x00, 0x00, 0x00, 0x00, 0x00, 0x00, 0x00,
  0x00, 0x00, 0x00, 0x00, 0x00, 0x00, 0x00, 0x00, 0x00, 0x00, 0x00, 0x00,
  0x00, 0x00, 0x00, 0x00, 0x00, 0x00, 0x00, 0x00, 0x00, 0x00, 0x00, 0x00,
  0x00, 0x00, 0x00, 0x00, 0x00, 0x00, 0x00, 0x00, 0x00, 0x00, 0x00, 0x00,
  0x00, 0x00, 0x00, 0x00, 0x00, 0x00, 0x00, 0x00, 0x00, 0x00, 0x00, 0x00,
  0x00, 0x00, 0x00, 0x00, 0x00, 0x00, 0x00, 0x00, 0x00, 0x00, 0x00, 0x00,
  0x00, 0x00, 0x00, 0x00, 0x00, 0x00, 0x00, 0x00, 0x00, 0x00, 0x00, 0x00,
  0x00, 0x00, 0x00, 0x00, 0x00, 0x00, 0x00, 0x00, 0x0c, 0x00, 0x00, 0x00,
  0xfe, 0x64, 0xee, 0x3b, 0x85, 0xbe, 0xf2, 0x3b, 0x23, 0x87, 0x2a, 0x3b,
  0x65, 0x14, 0x58, 0x3b, 0x6d, 0xaf, 0x9f, 0x3b, 0x13, 0x82, 0x1d, 0x3c,
  0x78, 0x6d, 0x00, 0x3c, 0x6f, 0x4a, 0x12, 0x3c, 0xac, 0xe4, 0x80, 0x3b,
  0x34, 0xe2, 0xc7, 0x3b, 0xaa, 0x5e, 0x7a, 0x3b, 0x9e, 0x02, 0xa9, 0x3b,
  0x28, 0x00, 0x00, 0x00, 0x54, 0x69, 0x6e, 0x79, 0x52, 0x65, 0x73, 0x69,
  0x64, 0x75, 0x61, 0x6c, 0x4e, 0x65, 0x74, 0x5f, 0x31, 0x2f, 0x63, 0x6f,
  0x6e, 0x76, 0x32, 0x64, 0x5f, 0x39, 0x5f, 0x31, 0x2f, 0x63, 0x6f, 0x6e,
  0x76, 0x6f, 0x6c, 0x75, 0x74, 0x69, 0x6f, 0x6e, 0x00, 0x00, 0x00, 0x00,
  0x04, 0x00, 0x00, 0x00, 0x0c, 0x00, 0x00, 0x00, 0x03, 0x00, 0x00, 0x00,
  0x03, 0x00, 0x00, 0x00, 0x01, 0x00, 0x00, 0x00, 0xf2, 0xd0, 0xff, 0xff,
  0x00, 0x00, 0x00, 0x01, 0x14, 0x00, 0x00, 0x00, 0xb4, 0x00, 0x00, 0x00,
  0x17, 0x00, 0x00, 0x00, 0x00, 0x00, 0x00, 0x02, 0x6c, 0x01, 0x00, 0x00,
  0x34, 0xd0, 0xff, 0xff, 0x08, 0x00, 0x00, 0x00, 0x68, 0x00, 0x00, 0x00,
  0x0c, 0x00, 0x00, 0x00, 0x00, 0x00, 0x00, 0x00, 0x00, 0x00, 0x00, 0x00,
  0x00, 0x00, 0x00, 0x00, 0x00, 0x00, 0x00, 0x00, 0x00, 0x00, 0x00, 0x00,
  0x00, 0x00, 0x00, 0x00, 0x00, 0x00, 0x00, 0x00, 0x00, 0x00, 0x00, 0x00,
  0x00, 0x00, 0x00, 0x00, 0x00, 0x00, 0x00, 0x00, 0x00, 0x00, 0x00, 0x00,
  0x00, 0x00, 0x00, 0x00, 0x00, 0x00, 0x00, 0x00, 0x00, 0x00, 0x00, 0x00,
  0x00, 0x00, 0x00, 0x00, 0x00, 0x00, 0x00, 0x00, 0x00, 0x00, 0x00, 0x00,
  0x00, 0x00, 0x00, 0x00, 0x00, 0x00, 0x00, 0x00, 0x00, 0x00, 0x00, 0x00,
  0x00, 0x00, 0x00, 0x00, 0x00, 0x00, 0x00, 0x00, 0x00, 0x00, 0x00, 0x00,
  0x00, 0x00, 0x00, 0x00, 0x0c, 0x00, 0x00, 0x00, 0xa5, 0x7f, 0xa0, 0x39,
  0x53, 0x6d, 0xa3, 0x39, 0x76, 0x9d, 0xe5, 0x38, 0xa6, 0x79, 0x11, 0x39,
  0xfa, 0x03, 0x57, 0x39, 0x82, 0x15, 0xd4, 0x39, 0x60, 0xed, 0xac, 0x39,
  0xdb, 0xfa, 0xc4, 0x39, 0xe2, 0x8d, 0x2d, 0x39, 0x3c, 0x92, 0x86, 0x39,
  0x9a, 0x8f, 0x28, 0x39, 0x52, 0x92, 0x63, 0x39, 0xbe, 0x00, 0x00, 0x00,
  0x54, 0x69, 0x6e, 0x79, 0x52, 0x65, 0x73, 0x69, 0x64, 0x75, 0x61, 0x6c,
  0x4e, 0x65, 0x74, 0x5f, 0x31, 0x2f, 0x72, 0x65, 0x5f, 0x6c, 0x75, 0x5f,
  0x31, 0x36, 0x5f, 0x31, 0x2f, 0x52, 0x65, 0x6c, 0x75, 0x3b, 0x54, 0x69,
  0x6e, 0x79, 0x52, 0x65, 0x73, 0x69, 0x64, 0x75, 0x61, 0x6c, 0x4e, 0x65,
  0x74, 0x5f, 0x31, 0x2f, 0x62, 0x61, 0x74, 0x63, 0x68, 0x5f, 0x6e, 0x6f,
  0x72, 0x6d, 0x61, 0x6c, 0x69, 0x7a, 0x61, 0x74, 0x69, 0x6f, 0x6e, 0x5f,
  0x31, 0x36, 0x5f, 0x31, 0x2f, 0x62, 0x61, 0x74, 0x63, 0x68, 0x6e, 0x6f,
  0x72, 0x6d, 0x2f, 0x61, 0x64, 0x64, 0x5f, 0x31, 0x3b, 0x54, 0x69, 0x6e,
  0x79, 0x52, 0x65, 0x73, 0x69, 0x64, 0x75, 0x61, 0x6c, 0x4e, 0x65, 0x74,
  0x5f, 0x31, 0x2f, 0x63, 0x6f, 0x6e, 0x76, 0x32, 0x64, 0x5f, 0x39, 0x5f,
  0x31, 0x2f, 0x63, 0x6f, 0x6e, 0x76, 0x6f, 0x6c, 0x75, 0x74, 0x69, 0x6f,
  0x6e, 0x3b, 0x54, 0x69, 0x6e, 0x79, 0x52, 0x65, 0x73, 0x69, 0x64, 0x75,
  0x61, 0x6c, 0x4e, 0x65, 0x74, 0x5f, 0x31, 0x2f, 0x62, 0x61, 0x74, 0x63,
  0x68, 0x5f, 0x6e, 0x6f, 0x72, 0x6d, 0x61, 0x6c, 0x69, 0x7a, 0x61, 0x74,
  0x69, 0x6f, 0x6e, 0x5f, 0x31, 0x36, 0x5f, 0x31, 0x2f, 0x62, 0x61, 0x74,
